{"word2idx": {"[PAD]": 0, "[unused1]": 1, "[unused2]": 2, "[unused3]": 3, "[unused4]": 4, "[unused5]": 5, "[unused6]": 6, "[unused7]": 7, "[unused8]": 8, "[unused9]": 9, "[unused10]": 10, "[unused11]": 11, "[unused12]": 12, "[unused13]": 13, "[unused14]": 14, "[unused15]": 15, "[unused16]": 16, "[unused17]": 17, "[unused18]": 18, "[unused19]": 19, "[unused20]": 20, "[unused21]": 21, "[unused22]": 22, "[unused23]": 23, "[unused24]": 24, "[unused25]": 25, "[unused26]": 26, "[unused27]": 27, "[unused28]": 28, "[unused29]": 29, "[unused30]": 30, "[unused31]": 31, "[unused32]": 32, "[unused33]": 33, "[unused34]": 34, "[unused35]": 35, "[unused36]": 36, "[unused37]": 37, "[unused38]": 38, "[unused39]": 39, "[unused40]": 40, "[unused41]": 41, "[unused42]": 42, "[unused43]": 43, "[unused44]": 44, "[unused45]": 45, "[unused46]": 46, "[unused47]": 47, "[unused48]": 48, "[unused49]": 49, "[unused50]": 50, "[unused51]": 51, "[unused52]": 52, "[unused53]": 53, "[unused54]": 54, "[unused55]": 55, "[unused56]": 56, "[unused57]": 57, "[unused58]": 58, "[unused59]": 59, "[unused60]": 60, "[unused61]": 61, "[unused62]": 62, "[unused63]": 63, "[unused64]": 64, "[unused65]": 65, "[unused66]": 66, "[unused67]": 67, "[unused68]": 68, "[unused69]": 69, "[unused70]": 70, "[unused71]": 71, "[unused72]": 72, "[unused73]": 73, "[unused74]": 74, "[unused75]": 75, "[unused76]": 76, "[unused77]": 77, "[unused78]": 78, "[unused79]": 79, "[unused80]": 80, "[unused81]": 81, "[unused82]": 82, "[unused83]": 83, "[unused84]": 84, "[unused85]": 85, "[unused86]": 86, "[unused87]": 87, "[unused88]": 88, "[unused89]": 89, "[unused90]": 90, "[unused91]": 91, "[unused92]": 92, "[unused93]": 93, "[unused94]": 94, "[unused95]": 95, "[unused96]": 96, "[unused97]": 97, "[unused98]": 98, "[unused99]": 99, "[UNK]": 100, "[CLS]": 101, "[SEP]": 102, "[MASK]": 103, "<S>": 104, "<T>": 105, "!": 106, "\"": 107, "#": 108, "$": 109, "%": 110, "&": 111, "'": 112, "(": 113, ")": 114, "*": 115, "+": 116, ",": 117, "-": 118, ".": 119, "/": 120, "0": 121, "1": 122, "2": 123, "3": 124, "4": 125, "5": 126, "6": 127, "7": 128, "8": 129, "9": 130, ":": 131, ";": 132, "<": 133, "=": 134, ">": 135, "?": 136, "@": 137, "[": 138, "\\": 139, "]": 140, "^": 141, "_": 142, "a": 143, "b": 144, "c": 145, "d": 146, "e": 147, "f": 148, "g": 149, "h": 150, "i": 151, "j": 152, "k": 153, "l": 154, "m": 155, "n": 156, "o": 157, "p": 158, "q": 159, "r": 160, "s": 161, "t": 162, "u": 163, "v": 164, "w": 165, "x": 166, "y": 167, "z": 168, "{": 169, "|": 170, "}": 171, "~": 172, "\u00a3": 173, "\u00a4": 174, "\u00a5": 175, "\u00a7": 176, "\u00a9": 177, "\u00ab": 178, "\u00ae": 179, "\u00b0": 180, "\u00b1": 181, "\u00b2": 182, "\u00b3": 183, "\u00b5": 184, "\u00b7": 185, "\u00b9": 186, "\u00ba": 187, "\u00bb": 188, "\u00bc": 189, "\u00d7": 190, "\u00df": 191, "\u00e6": 192, "\u00f7": 193, "\u00f8": 194, "\u0111": 195, "\u014b": 196, "\u0254": 197, "\u0259": 198, "\u0261": 199, "\u02b0": 200, "\u02c7": 201, "\u02c8": 202, "\u02ca": 203, "\u02cb": 204, "\u02cd": 205, "\u02d0": 206, "\u02d9": 207, "\u02da": 208, "\u02e2": 209, "\u03b1": 210, "\u03b2": 211, "\u03b3": 212, "\u03b4": 213, "\u03b5": 214, "\u03b7": 215, "\u03b8": 216, "\u03b9": 217, "\u03ba": 218, "\u03bb": 219, "\u03bc": 220, "\u03bd": 221, "\u03bf": 222, "\u03c0": 223, "\u03c1": 224, "\u03c2": 225, "\u03c3": 226, "\u03c4": 227, "\u03c5": 228, "\u03c6": 229, "\u03c7": 230, "\u03c8": 231, "\u03c9": 232, "\u0430": 233, "\u0431": 234, "\u0432": 235, "\u0433": 236, "\u0434": 237, "\u0435": 238, "\u0436": 239, "\u0437": 240, "\u0438": 241, "\u043a": 242, "\u043b": 243, "\u043c": 244, "\u043d": 245, "\u043e": 246, "\u043f": 247, "\u0440": 248, "\u0441": 249, "\u0442": 250, "\u0443": 251, "\u0444": 252, "\u0445": 253, "\u0446": 254, "\u0447": 255, "\u0448": 256, "\u044b": 257, "\u044c": 258, "\u044f": 259, "\u0456": 260, "\u0627": 261, "\u0628": 262, "\u0629": 263, "\u062a": 264, "\u062f": 265, "\u0631": 266, "\u0633": 267, "\u0639": 268, "\u0644": 269, "\u0645": 270, "\u0646": 271, "\u0647": 272, "\u0648": 273, "\u064a": 274, "\u06e9": 275, "\u0e01": 276, "\u0e07": 277, "\u0e19": 278, "\u0e21": 279, "\u0e22": 280, "\u0e23": 281, "\u0e2d": 282, "\u0e32": 283, "\u0e40": 284, "\u0e51": 285, "\u0f0b": 286, "\u10e6": 287, "\u1100": 288, "\u1101": 289, "\u1102": 290, "\u1103": 291, "\u1105": 292, "\u1106": 293, "\u1107": 294, "\u1108": 295, "\u1109": 296, "\u110b": 297, "\u110c": 298, "\u110e": 299, "\u110f": 300, "\u1110": 301, "\u1111": 302, "\u1112": 303, "\u1161": 304, "\u1162": 305, "\u1163": 306, "\u1165": 307, "\u1166": 308, "\u1167": 309, "\u1168": 310, "\u1169": 311, "\u116a": 312, "\u116c": 313, "\u116d": 314, "\u116e": 315, "\u116f": 316, "\u1172": 317, "\u1173": 318, "\u1174": 319, "\u1175": 320, "\u11a8": 321, "\u11ab": 322, "\u11af": 323, "\u11b7": 324, "\u11b8": 325, "\u11ba": 326, "\u11bb": 327, "\u11bc": 328, "\u15dc": 329, "\u1d43": 330, "\u1d49": 331, "\u1d4d": 332, "\u1d4f": 333, "\u1d50": 334, "\u1d52": 335, "\u1d58": 336, "\u2016": 337, "\u201e": 338, "\u2020": 339, "\u2022": 340, "\u2025": 341, "\u2027": 342, "\u2028": 343, "\u2030": 344, "\u2032": 345, "\u2033": 346, "\u2039": 347, "\u203a": 348, "\u203b": 349, "\u203f": 350, "\u2044": 351, "\u2071": 352, "\u207a": 353, "\u207f": 354, "\u2081": 355, "\u2082": 356, "\u2083": 357, "\u2084": 358, "\u20ac": 359, "\u2103": 360, "\u2116": 361, "\u2122": 362, "\u2170": 363, "\u2171": 364, "\u2172": 365, "\u2173": 366, "\u2174": 367, "\u2190": 368, "\u2191": 369, "\u2192": 370, "\u2193": 371, "\u2194": 372, "\u2197": 373, "\u2198": 374, "\u21d2": 375, "\u2200": 376, "\u2212": 377, "\u2215": 378, "\u2219": 379, "\u221a": 380, "\u221e": 381, "\u221f": 382, "\u2220": 383, "\u2223": 384, "\u2225": 385, "\u2229": 386, "\u222e": 387, "\u2236": 388, "\u223c": 389, "\u223d": 390, "\u2248": 391, "\u2252": 392, "\u2261": 393, "\u2264": 394, "\u2265": 395, "\u2266": 396, "\u2267": 397, "\u226a": 398, "\u226b": 399, "\u2299": 400, "\u22c5": 401, "\u22c8": 402, "\u22ef": 403, "\u2312": 404, "\u2460": 405, "\u2461": 406, "\u2462": 407, "\u2463": 408, "\u2464": 409, "\u2465": 410, "\u2466": 411, "\u2467": 412, "\u2468": 413, "\u2469": 414, "\u2474": 415, "\u2475": 416, "\u2476": 417, "\u2477": 418, "\u2478": 419, "\u2488": 420, "\u2489": 421, "\u248a": 422, "\u248b": 423, "\u24d2": 424, "\u24d4": 425, "\u24d8": 426, "\u2500": 427, "\u2501": 428, "\u2502": 429, "\u2503": 430, "\u2505": 431, "\u2506": 432, "\u250a": 433, "\u250c": 434, "\u2514": 435, "\u251c": 436, "\u2523": 437, "\u2550": 438, "\u2551": 439, "\u255a": 440, "\u255e": 441, "\u2560": 442, "\u256d": 443, "\u256e": 444, "\u256f": 445, "\u2570": 446, "\u2571": 447, "\u2573": 448, "\u2582": 449, "\u2583": 450, "\u2585": 451, "\u2587": 452, "\u2588": 453, "\u2589": 454, "\u258b": 455, "\u258c": 456, "\u258d": 457, "\u258e": 458, "\u25a0": 459, "\u25a1": 460, "\u25aa": 461, "\u25ab": 462, "\u25ac": 463, "\u25b2": 464, "\u25b3": 465, "\u25b6": 466, "\u25ba": 467, "\u25bc": 468, "\u25bd": 469, "\u25c6": 470, "\u25c7": 471, "\u25cb": 472, "\u25ce": 473, "\u25cf": 474, "\u25d5": 475, "\u25e0": 476, "\u25e2": 477, "\u25e4": 478, "\u2600": 479, "\u2605": 480, "\u2606": 481, "\u2615": 482, "\u261e": 483, "\u263a": 484, "\u263c": 485, "\u2640": 486, "\u2642": 487, "\u2660": 488, "\u2661": 489, "\u2663": 490, "\u2665": 491, "\u2666": 492, "\u266a": 493, "\u266b": 494, "\u266c": 495, "\u2708": 496, "\u2714": 497, "\u2715": 498, "\u2716": 499, "\u2726": 500, "\u2728": 501, "\u272a": 502, "\u2730": 503, "\u273f": 504, "\u2740": 505, "\u2764": 506, "\u279c": 507, "\u27a4": 508, "\u29bf": 509, "\u3001": 510, "\u3002": 511, "\u3003": 512, "\u3005": 513, "\u3007": 514, "\u3008": 515, "\u3009": 516, "\u300a": 517, "\u300b": 518, "\u300c": 519, "\u300d": 520, "\u300e": 521, "\u300f": 522, "\u3010": 523, "\u3011": 524, "\u3013": 525, "\u3014": 526, "\u3015": 527, "\u3016": 528, "\u3017": 529, "\u301c": 530, "\u301d": 531, "\u301e": 532, "\u3041": 533, "\u3042": 534, "\u3043": 535, "\u3044": 536, "\u3046": 537, "\u3047": 538, "\u3048": 539, "\u304a": 540, "\u304b": 541, "\u304d": 542, "\u304f": 543, "\u3051": 544, "\u3053": 545, "\u3055": 546, "\u3057": 547, "\u3059": 548, "\u305b": 549, "\u305d": 550, "\u305f": 551, "\u3061": 552, "\u3063": 553, "\u3064": 554, "\u3066": 555, "\u3068": 556, "\u306a": 557, "\u306b": 558, "\u306c": 559, "\u306d": 560, "\u306e": 561, "\u306f": 562, "\u3072": 563, "\u3075": 564, "\u3078": 565, "\u307b": 566, "\u307e": 567, "\u307f": 568, "\u3080": 569, "\u3081": 570, "\u3082": 571, "\u3083": 572, "\u3084": 573, "\u3085": 574, "\u3086": 575, "\u3087": 576, "\u3088": 577, "\u3089": 578, "\u308a": 579, "\u308b": 580, "\u308c": 581, "\u308d": 582, "\u308f": 583, "\u3092": 584, "\u3093": 585, "\u309c": 586, "\u309d": 587, "\u30a1": 588, "\u30a2": 589, "\u30a3": 590, "\u30a4": 591, "\u30a5": 592, "\u30a6": 593, "\u30a7": 594, "\u30a8": 595, "\u30a9": 596, "\u30aa": 597, "\u30ab": 598, "\u30ad": 599, "\u30af": 600, "\u30b1": 601, "\u30b3": 602, "\u30b5": 603, "\u30b7": 604, "\u30b9": 605, "\u30bb": 606, "\u30bd": 607, "\u30bf": 608, "\u30c1": 609, "\u30c3": 610, "\u30c4": 611, "\u30c6": 612, "\u30c8": 613, "\u30ca": 614, "\u30cb": 615, "\u30cc": 616, "\u30cd": 617, "\u30ce": 618, "\u30cf": 619, "\u30d2": 620, "\u30d5": 621, "\u30d8": 622, "\u30db": 623, "\u30de": 624, "\u30df": 625, "\u30e0": 626, "\u30e1": 627, "\u30e2": 628, "\u30e3": 629, "\u30e4": 630, "\u30e5": 631, "\u30e6": 632, "\u30e7": 633, "\u30e8": 634, "\u30e9": 635, "\u30ea": 636, "\u30eb": 637, "\u30ec": 638, "\u30ed": 639, "\u30ef": 640, "\u30f2": 641, "\u30f3": 642, "\u30f6": 643, "\u30fb": 644, "\u30fc": 645, "\u30fd": 646, "\u3105": 647, "\u3106": 648, "\u3107": 649, "\u3109": 650, "\u310b": 651, "\u310c": 652, "\u310d": 653, "\u310e": 654, "\u310f": 655, "\u3112": 656, "\u311a": 657, "\u311b": 658, "\u311e": 659, "\u311f": 660, "\u3122": 661, "\u3124": 662, "\u3125": 663, "\u3127": 664, "\u3128": 665, "\u318d": 666, "\u3226": 667, "\u32a3": 668, "\u33a1": 669, "\u35ce": 670, "\u4e00": 671, "\u4e01": 672, "\u4e03": 673, "\u4e07": 674, "\u4e08": 675, "\u4e09": 676, "\u4e0a": 677, "\u4e0b": 678, "\u4e0d": 679, "\u4e0e": 680, "\u4e10": 681, "\u4e11": 682, "\u4e13": 683, "\u4e14": 684, "\u4e15": 685, "\u4e16": 686, "\u4e18": 687, "\u4e19": 688, "\u4e1a": 689, "\u4e1b": 690, "\u4e1c": 691, "\u4e1d": 692, "\u4e1e": 693, "\u4e1f": 694, "\u4e21": 695, "\u4e22": 696, "\u4e24": 697, "\u4e25": 698, "\u4e26": 699, "\u4e27": 700, "\u4e28": 701, "\u4e2a": 702, "\u4e2b": 703, "\u4e2d": 704, "\u4e30": 705, "\u4e32": 706, "\u4e34": 707, "\u4e36": 708, "\u4e38": 709, "\u4e39": 710, "\u4e3a": 711, "\u4e3b": 712, "\u4e3c": 713, "\u4e3d": 714, "\u4e3e": 715, "\u4e3f": 716, "\u4e42": 717, "\u4e43": 718, "\u4e45": 719, "\u4e48": 720, "\u4e49": 721, "\u4e4b": 722, "\u4e4c": 723, "\u4e4d": 724, "\u4e4e": 725, "\u4e4f": 726, "\u4e50": 727, "\u4e52": 728, "\u4e53": 729, "\u4e54": 730, "\u4e56": 731, "\u4e57": 732, "\u4e58": 733, "\u4e59": 734, "\u4e5c": 735, "\u4e5d": 736, "\u4e5e": 737, "\u4e5f": 738, "\u4e60": 739, "\u4e61": 740, "\u4e66": 741, "\u4e69": 742, "\u4e70": 743, "\u4e71": 744, "\u4e73": 745, "\u4e7e": 746, "\u4e80": 747, "\u4e82": 748, "\u4e86": 749, "\u4e88": 750, "\u4e89": 751, "\u4e8b": 752, "\u4e8c": 753, "\u4e8e": 754, "\u4e8f": 755, "\u4e91": 756, "\u4e92": 757, "\u4e94": 758, "\u4e95": 759, "\u4e98": 760, "\u4e99": 761, "\u4e9a": 762, "\u4e9b": 763, "\u4e9c": 764, "\u4e9e": 765, "\u4e9f": 766, "\u4ea1": 767, "\u4ea2": 768, "\u4ea4": 769, "\u4ea5": 770, "\u4ea6": 771, "\u4ea7": 772, "\u4ea8": 773, "\u4ea9": 774, "\u4eab": 775, "\u4eac": 776, "\u4ead": 777, "\u4eae": 778, "\u4eb2": 779, "\u4eb3": 780, "\u4eb5": 781, "\u4eba": 782, "\u4ebf": 783, "\u4ec0": 784, "\u4ec1": 785, "\u4ec3": 786, "\u4ec4": 787, "\u4ec5": 788, "\u4ec6": 789, "\u4ec7": 790, "\u4eca": 791, "\u4ecb": 792, "\u4ecd": 793, "\u4ece": 794, "\u4ecf": 795, "\u4ed1": 796, "\u4ed3": 797, "\u4ed4": 798, "\u4ed5": 799, "\u4ed6": 800, "\u4ed7": 801, "\u4ed8": 802, "\u4ed9": 803, "\u4edd": 804, "\u4ede": 805, "\u4edf": 806, "\u4ee3": 807, "\u4ee4": 808, "\u4ee5": 809, "\u4ee8": 810, "\u4eea": 811, "\u4eec": 812, "\u4eee": 813, "\u4ef0": 814, "\u4ef2": 815, "\u4ef6": 816, "\u4ef7": 817, "\u4efb": 818, "\u4efd": 819, "\u4eff": 820, "\u4f01": 821, "\u4f09": 822, "\u4f0a": 823, "\u4f0d": 824, "\u4f0e": 825, "\u4f0f": 826, "\u4f10": 827, "\u4f11": 828, "\u4f15": 829, "\u4f17": 830, "\u4f18": 831, "\u4f19": 832, "\u4f1a": 833, "\u4f1d": 834, "\u4f1e": 835, "\u4f1f": 836, "\u4f20": 837, "\u4f22": 838, "\u4f24": 839, "\u4f26": 840, "\u4f2a": 841, "\u4f2b": 842, "\u4f2f": 843, "\u4f30": 844, "\u4f34": 845, "\u4f36": 846, "\u4f38": 847, "\u4f3a": 848, "\u4f3c": 849, "\u4f3d": 850, "\u4f43": 851, "\u4f46": 852, "\u4f47": 853, "\u4f48": 854, "\u4f4d": 855, "\u4f4e": 856, "\u4f4f": 857, "\u4f50": 858, "\u4f51": 859, "\u4f53": 860, "\u4f54": 861, "\u4f55": 862, "\u4f57": 863, "\u4f58": 864, "\u4f59": 865, "\u4f5a": 866, "\u4f5b": 867, "\u4f5c": 868, "\u4f5d": 869, "\u4f5e": 870, "\u4f5f": 871, "\u4f60": 872, "\u4f62": 873, "\u4f63": 874, "\u4f64": 875, "\u4f65": 876, "\u4f69": 877, "\u4f6c": 878, "\u4f6f": 879, "\u4f70": 880, "\u4f73": 881, "\u4f75": 882, "\u4f76": 883, "\u4f7b": 884, "\u4f7c": 885, "\u4f7f": 886, "\u4f83": 887, "\u4f84": 888, "\u4f86": 889, "\u4f88": 890, "\u4f8b": 891, "\u4f8d": 892, "\u4f8f": 893, "\u4f91": 894, "\u4f96": 895, "\u4f97": 896, "\u4f9b": 897, "\u4f9d": 898, "\u4fa0": 899, "\u4fa1": 900, "\u4fa3": 901, "\u4fa5": 902, "\u4fa6": 903, "\u4fa7": 904, "\u4fa8": 905, "\u4fac": 906, "\u4fae": 907, "\u4faf": 908, "\u4fb5": 909, "\u4fb6": 910, "\u4fb7": 911, "\u4fbf": 912, "\u4fc2": 913, "\u4fc3": 914, "\u4fc4": 915, "\u4fca": 916, "\u4fce": 917, "\u4fcf": 918, "\u4fd0": 919, "\u4fd1": 920, "\u4fd7": 921, "\u4fd8": 922, "\u4fda": 923, "\u4fdd": 924, "\u4fde": 925, "\u4fdf": 926, "\u4fe0": 927, "\u4fe1": 928, "\u4fe8": 929, "\u4fe9": 930, "\u4fea": 931, "\u4fec": 932, "\u4fed": 933, "\u4fee": 934, "\u4fef": 935, "\u4ff1": 936, "\u4ff3": 937, "\u4ff8": 938, "\u4ffa": 939, "\u4ffe": 940, "\u5006": 941, "\u5009": 942, "\u500b": 943, "\u500c": 944, "\u500d": 945, "\u500f": 946, "\u5011": 947, "\u5012": 948, "\u5014": 949, "\u5016": 950, "\u5018": 951, "\u5019": 952, "\u501a": 953, "\u501c": 954, "\u501f": 955, "\u5021": 956, "\u5024": 957, "\u5026": 958, "\u5029": 959, "\u502a": 960, "\u502b": 961, "\u502c": 962, "\u502d": 963, "\u5036": 964, "\u503a": 965, "\u503c": 966, "\u503e": 967, "\u5043": 968, "\u5047": 969, "\u5048": 970, "\u5049": 971, "\u504c": 972, "\u504e": 973, "\u504f": 974, "\u5055": 975, "\u505a": 976, "\u505c": 977, "\u5065": 978, "\u5074": 979, "\u5075": 980, "\u5076": 981, "\u5077": 982, "\u507b": 983, "\u507d": 984, "\u507f": 985, "\u5080": 986, "\u5085": 987, "\u508d": 988, "\u5091": 989, "\u5098": 990, "\u5099": 991, "\u509a": 992, "\u50a2": 993, "\u50a3": 994, "\u50a5": 995, "\u50a8": 996, "\u50a9": 997, "\u50ac": 998, "\u50ad": 999, "\u50b2": 1000, "\u50b3": 1001, "\u50b5": 1002, "\u50b7": 1003, "\u50bb": 1004, "\u50be": 1005, "\u50c5": 1006, "\u50cd": 1007, "\u50cf": 1008, "\u50d1": 1009, "\u50d5": 1010, "\u50d6": 1011, "\u50da": 1012, "\u50e5": 1013, "\u50e7": 1014, "\u50ed": 1015, "\u50ee": 1016, "\u50f1": 1017, "\u50f5": 1018, "\u50f9": 1019, "\u50fb": 1020, "\u5100": 1021, "\u5102": 1022, "\u5104": 1023, "\u5106": 1024, "\u5109": 1025, "\u510b": 1026, "\u5112": 1027, "\u5115": 1028, "\u5118": 1029, "\u511f": 1030, "\u5121": 1031, "\u512a": 1032, "\u5132": 1033, "\u5137": 1034, "\u513c": 1035, "\u513f": 1036, "\u5140": 1037, "\u5141": 1038, "\u5143": 1039, "\u5144": 1040, "\u5145": 1041, "\u5146": 1042, "\u5147": 1043, "\u5148": 1044, "\u5149": 1045, "\u514b": 1046, "\u514c": 1047, "\u514d": 1048, "\u5150": 1049, "\u5151": 1050, "\u5152": 1051, "\u5154": 1052, "\u5156": 1053, "\u515a": 1054, "\u515c": 1055, "\u5162": 1056, "\u5165": 1057, "\u5167": 1058, "\u5168": 1059, "\u5169": 1060, "\u516b": 1061, "\u516c": 1062, "\u516d": 1063, "\u516e": 1064, "\u5170": 1065, "\u5171": 1066, "\u5172": 1067, "\u5173": 1068, "\u5174": 1069, "\u5175": 1070, "\u5176": 1071, "\u5177": 1072, "\u5178": 1073, "\u5179": 1074, "\u517b": 1075, "\u517c": 1076, "\u517d": 1077, "\u5180": 1078, "\u5185": 1079, "\u5186": 1080, "\u5187": 1081, "\u5188": 1082, "\u5189": 1083, "\u518a": 1084, "\u518c": 1085, "\u518d": 1086, "\u518f": 1087, "\u5192": 1088, "\u5195": 1089, "\u5197": 1090, "\u5199": 1091, "\u519b": 1092, "\u519c": 1093, "\u51a0": 1094, "\u51a2": 1095, "\u51a4": 1096, "\u51a5": 1097, "\u51a8": 1098, "\u51aa": 1099, "\u51ac": 1100, "\u51af": 1101, "\u51b0": 1102, "\u51b2": 1103, "\u51b3": 1104, "\u51b5": 1105, "\u51b6": 1106, "\u51b7": 1107, "\u51bb": 1108, "\u51bc": 1109, "\u51bd": 1110, "\u51be": 1111, "\u51c0": 1112, "\u51c4": 1113, "\u51c6": 1114, "\u51c7": 1115, "\u51c8": 1116, "\u51c9": 1117, "\u51cb": 1118, "\u51cc": 1119, "\u51cd": 1120, "\u51cf": 1121, "\u51d1": 1122, "\u51db": 1123, "\u51dc": 1124, "\u51dd": 1125, "\u51e0": 1126, "\u51e1": 1127, "\u51e4": 1128, "\u51e6": 1129, "\u51ea": 1130, "\u51ed": 1131, "\u51ef": 1132, "\u51f0": 1133, "\u51f1": 1134, "\u51f3": 1135, "\u51f6": 1136, "\u51f8": 1137, "\u51f9": 1138, "\u51fa": 1139, "\u51fb": 1140, "\u51fd": 1141, "\u51ff": 1142, "\u5200": 1143, "\u5201": 1144, "\u5203": 1145, "\u5206": 1146, "\u5207": 1147, "\u5208": 1148, "\u520a": 1149, "\u520d": 1150, "\u520e": 1151, "\u5211": 1152, "\u5212": 1153, "\u5217": 1154, "\u5218": 1155, "\u5219": 1156, "\u521a": 1157, "\u521b": 1158, "\u521d": 1159, "\u5220": 1160, "\u5224": 1161, "\u5225": 1162, "\u5228": 1163, "\u5229": 1164, "\u522a": 1165, "\u522b": 1166, "\u522e": 1167, "\u5230": 1168, "\u5236": 1169, "\u5237": 1170, "\u5238": 1171, "\u5239": 1172, "\u523a": 1173, "\u523b": 1174, "\u523d": 1175, "\u5241": 1176, "\u5242": 1177, "\u5243": 1178, "\u5247": 1179, "\u5249": 1180, "\u524a": 1181, "\u524b": 1182, "\u524c": 1183, "\u524d": 1184, "\u524e": 1185, "\u5250": 1186, "\u5251": 1187, "\u5254": 1188, "\u5256": 1189, "\u525b": 1190, "\u525c": 1191, "\u525d": 1192, "\u5263": 1193, "\u5264": 1194, "\u5265": 1195, "\u5267": 1196, "\u5269": 1197, "\u526a": 1198, "\u526f": 1199, "\u5272": 1200, "\u5275": 1201, "\u5277": 1202, "\u527d": 1203, "\u527f": 1204, "\u5283": 1205, "\u5287": 1206, "\u5288": 1207, "\u5289": 1208, "\u528a": 1209, "\u528d": 1210, "\u528f": 1211, "\u5291": 1212, "\u529b": 1213, "\u529d": 1214, "\u529e": 1215, "\u529f": 1216, "\u52a0": 1217, "\u52a1": 1218, "\u52a3": 1219, "\u52a8": 1220, "\u52a9": 1221, "\u52aa": 1222, "\u52ab": 1223, "\u52ad": 1224, "\u52b1": 1225, "\u52b2": 1226, "\u52b3": 1227, "\u52b4": 1228, "\u52b5": 1229, "\u52b9": 1230, "\u52be": 1231, "\u52bf": 1232, "\u52c1": 1233, "\u52c3": 1234, "\u52c7": 1235, "\u52c9": 1236, "\u52cb": 1237, "\u52d0": 1238, "\u52d2": 1239, "\u52d5": 1240, "\u52d6": 1241, "\u52d8": 1242, "\u52d9": 1243, "\u52db": 1244, "\u52dd": 1245, "\u52de": 1246, "\u52df": 1247, "\u52e2": 1248, "\u52e4": 1249, "\u52e7": 1250, "\u52f3": 1251, "\u52f5": 1252, "\u52f8": 1253, "\u52fa": 1254, "\u52fb": 1255, "\u52fe": 1256, "\u52ff": 1257, "\u5300": 1258, "\u5305": 1259, "\u5306": 1260, "\u5308": 1261, "\u530d": 1262, "\u5310": 1263, "\u5315": 1264, "\u5316": 1265, "\u5317": 1266, "\u5319": 1267, "\u531d": 1268, "\u5320": 1269, "\u5321": 1270, "\u5323": 1271, "\u532a": 1272, "\u532e": 1273, "\u532f": 1274, "\u5331": 1275, "\u5339": 1276, "\u533a": 1277, "\u533b": 1278, "\u533e": 1279, "\u533f": 1280, "\u5340": 1281, "\u5341": 1282, "\u5343": 1283, "\u5345": 1284, "\u5347": 1285, "\u5348": 1286, "\u5349": 1287, "\u534a": 1288, "\u534d": 1289, "\u534e": 1290, "\u534f": 1291, "\u5351": 1292, "\u5352": 1293, "\u5353": 1294, "\u5354": 1295, "\u5355": 1296, "\u5356": 1297, "\u5357": 1298, "\u5358": 1299, "\u535a": 1300, "\u535c": 1301, "\u535e": 1302, "\u535f": 1303, "\u5360": 1304, "\u5361": 1305, "\u5362": 1306, "\u5364": 1307, "\u5366": 1308, "\u5367": 1309, "\u536b": 1310, "\u536e": 1311, "\u536f": 1312, "\u5370": 1313, "\u5371": 1314, "\u5373": 1315, "\u5374": 1316, "\u5375": 1317, "\u5377": 1318, "\u5378": 1319, "\u537b": 1320, "\u537f": 1321, "\u5382": 1322, "\u5384": 1323, "\u5385": 1324, "\u5386": 1325, "\u5389": 1326, "\u538b": 1327, "\u538c": 1328, "\u5395": 1329, "\u5398": 1330, "\u539a": 1331, "\u539d": 1332, "\u539f": 1333, "\u53a2": 1334, "\u53a5": 1335, "\u53a6": 1336, "\u53a8": 1337, "\u53a9": 1338, "\u53ad": 1339, "\u53ae": 1340, "\u53b2": 1341, "\u53b3": 1342, "\u53bb": 1343, "\u53bf": 1344, "\u53c1": 1345, "\u53c2": 1346, "\u53c3": 1347, "\u53c8": 1348, "\u53c9": 1349, "\u53ca": 1350, "\u53cb": 1351, "\u53cc": 1352, "\u53cd": 1353, "\u53ce": 1354, "\u53d1": 1355, "\u53d4": 1356, "\u53d6": 1357, "\u53d7": 1358, "\u53d8": 1359, "\u53d9": 1360, "\u53db": 1361, "\u53df": 1362, "\u53e0": 1363, "\u53e1": 1364, "\u53e2": 1365, "\u53e3": 1366, "\u53e4": 1367, "\u53e5": 1368, "\u53e6": 1369, "\u53e8": 1370, "\u53e9": 1371, "\u53ea": 1372, "\u53eb": 1373, "\u53ec": 1374, "\u53ed": 1375, "\u53ee": 1376, "\u53ef": 1377, "\u53f0": 1378, "\u53f1": 1379, "\u53f2": 1380, "\u53f3": 1381, "\u53f5": 1382, "\u53f6": 1383, "\u53f7": 1384, "\u53f8": 1385, "\u53f9": 1386, "\u53fb": 1387, "\u53fc": 1388, "\u53fd": 1389, "\u5401": 1390, "\u5403": 1391, "\u5404": 1392, "\u5406": 1393, "\u5408": 1394, "\u5409": 1395, "\u540a": 1396, "\u540b": 1397, "\u540c": 1398, "\u540d": 1399, "\u540e": 1400, "\u540f": 1401, "\u5410": 1402, "\u5411": 1403, "\u5412": 1404, "\u5413": 1405, "\u5415": 1406, "\u5416": 1407, "\u5417": 1408, "\u541b": 1409, "\u541d": 1410, "\u541e": 1411, "\u541f": 1412, "\u5420": 1413, "\u5421": 1414, "\u5426": 1415, "\u5427": 1416, "\u5428": 1417, "\u5429": 1418, "\u542b": 1419, "\u542c": 1420, "\u542d": 1421, "\u542e": 1422, "\u542f": 1423, "\u5431": 1424, "\u5433": 1425, "\u5434": 1426, "\u5435": 1427, "\u5436": 1428, "\u5438": 1429, "\u5439": 1430, "\u543b": 1431, "\u543c": 1432, "\u543d": 1433, "\u543e": 1434, "\u5440": 1435, "\u5442": 1436, "\u5443": 1437, "\u5446": 1438, "\u5448": 1439, "\u544a": 1440, "\u544b": 1441, "\u544e": 1442, "\u5450": 1443, "\u5453": 1444, "\u5455": 1445, "\u5457": 1446, "\u5458": 1447, "\u545b": 1448, "\u545c": 1449, "\u5462": 1450, "\u5464": 1451, "\u5466": 1452, "\u5468": 1453, "\u5471": 1454, "\u5472": 1455, "\u5473": 1456, "\u5475": 1457, "\u5477": 1458, "\u5478": 1459, "\u547b": 1460, "\u547c": 1461, "\u547d": 1462, "\u5480": 1463, "\u5481": 1464, "\u5482": 1465, "\u5484": 1466, "\u5486": 1467, "\u548b": 1468, "\u548c": 1469, "\u548e": 1470, "\u548f": 1471, "\u5490": 1472, "\u5492": 1473, "\u5494": 1474, "\u5495": 1475, "\u5496": 1476, "\u5497": 1477, "\u5498": 1478, "\u5499": 1479, "\u549a": 1480, "\u549b": 1481, "\u54a3": 1482, "\u54a4": 1483, "\u54a6": 1484, "\u54a7": 1485, "\u54a8": 1486, "\u54a9": 1487, "\u54aa": 1488, "\u54ab": 1489, "\u54ac": 1490, "\u54ad": 1491, "\u54af": 1492, "\u54b1": 1493, "\u54b2": 1494, "\u54b3": 1495, "\u54b8": 1496, "\u54bb": 1497, "\u54bd": 1498, "\u54bf": 1499, "\u54c0": 1500, "\u54c1": 1501, "\u54c2": 1502, "\u54c4": 1503, "\u54c6": 1504, "\u54c7": 1505, "\u54c8": 1506, "\u54c9": 1507, "\u54cb": 1508, "\u54cc": 1509, "\u54cd": 1510, "\u54ce": 1511, "\u54cf": 1512, "\u54d0": 1513, "\u54d1": 1514, "\u54d2": 1515, "\u54d4": 1516, "\u54d7": 1517, "\u54df": 1518, "\u54e1": 1519, "\u54e5": 1520, "\u54e6": 1521, "\u54e7": 1522, "\u54e8": 1523, "\u54e9": 1524, "\u54ea": 1525, "\u54ed": 1526, "\u54ee": 1527, "\u54f2": 1528, "\u54fa": 1529, "\u54fc": 1530, "\u54fd": 1531, "\u5501": 1532, "\u5504": 1533, "\u5506": 1534, "\u5507": 1535, "\u5509": 1536, "\u550f": 1537, "\u5510": 1538, "\u5511": 1539, "\u5514": 1540, "\u5520": 1541, "\u5524": 1542, "\u5527": 1543, "\u552c": 1544, "\u552e": 1545, "\u552f": 1546, "\u5530": 1547, "\u5531": 1548, "\u5533": 1549, "\u5537": 1550, "\u5538": 1551, "\u553e": 1552, "\u5543": 1553, "\u5544": 1554, "\u5546": 1555, "\u5549": 1556, "\u554a": 1557, "\u554f": 1558, "\u5553": 1559, "\u5555": 1560, "\u5556": 1561, "\u555c": 1562, "\u555e": 1563, "\u555f": 1564, "\u5561": 1565, "\u5564": 1566, "\u5565": 1567, "\u5566": 1568, "\u5567": 1569, "\u556a": 1570, "\u556b": 1571, "\u556c": 1572, "\u556e": 1573, "\u5570": 1574, "\u5571": 1575, "\u5572": 1576, "\u5575": 1577, "\u5576": 1578, "\u5577": 1579, "\u5578": 1580, "\u557b": 1581, "\u557c": 1582, "\u557e": 1583, "\u5580": 1584, "\u5582": 1585, "\u5583": 1586, "\u5584": 1587, "\u5586": 1588, "\u5587": 1589, "\u5589": 1590, "\u558a": 1591, "\u558b": 1592, "\u558e": 1593, "\u558f": 1594, "\u5594": 1595, "\u5598": 1596, "\u5599": 1597, "\u559a": 1598, "\u559c": 1599, "\u559d": 1600, "\u559f": 1601, "\u55a7": 1602, "\u55aa": 1603, "\u55ab": 1604, "\u55ac": 1605, "\u55ae": 1606, "\u55b0": 1607, "\u55b1": 1608, "\u55b2": 1609, "\u55b3": 1610, "\u55b5": 1611, "\u55b6": 1612, "\u55b7": 1613, "\u55b9": 1614, "\u55ba": 1615, "\u55bb": 1616, "\u55bd": 1617, "\u55c5": 1618, "\u55c6": 1619, "\u55c7": 1620, "\u55ce": 1621, "\u55d1": 1622, "\u55d2": 1623, "\u55d3": 1624, "\u55d4": 1625, "\u55d6": 1626, "\u55da": 1627, "\u55dc": 1628, "\u55dd": 1629, "\u55df": 1630, "\u55e1": 1631, "\u55e3": 1632, "\u55e4": 1633, "\u55e6": 1634, "\u55e8": 1635, "\u55ea": 1636, "\u55ec": 1637, "\u55ef": 1638, "\u55f0": 1639, "\u55f2": 1640, "\u55f3": 1641, "\u55f6": 1642, "\u55f7": 1643, "\u55fd": 1644, "\u5600": 1645, "\u5605": 1646, "\u5606": 1647, "\u5608": 1648, "\u5609": 1649, "\u560c": 1650, "\u560d": 1651, "\u560e": 1652, "\u5614": 1653, "\u5616": 1654, "\u5617": 1655, "\u5618": 1656, "\u561a": 1657, "\u561b": 1658, "\u561c": 1659, "\u561e": 1660, "\u561f": 1661, "\u5622": 1662, "\u5623": 1663, "\u5624": 1664, "\u5627": 1665, "\u5629": 1666, "\u562d": 1667, "\u562e": 1668, "\u562f": 1669, "\u5630": 1670, "\u5631": 1671, "\u5632": 1672, "\u5634": 1673, "\u5636": 1674, "\u5638": 1675, "\u5639": 1676, "\u563b": 1677, "\u563f": 1678, "\u5641": 1679, "\u564c": 1680, "\u564e": 1681, "\u5653": 1682, "\u5654": 1683, "\u5657": 1684, "\u5659": 1685, "\u565c": 1686, "\u5660": 1687, "\u5662": 1688, "\u5664": 1689, "\u5668": 1690, "\u5669": 1691, "\u566a": 1692, "\u566c": 1693, "\u5671": 1694, "\u5674": 1695, "\u5676": 1696, "\u5678": 1697, "\u5679": 1698, "\u567b": 1699, "\u567c": 1700, "\u5680": 1701, "\u5687": 1702, "\u568e": 1703, "\u568f": 1704, "\u5690": 1705, "\u5693": 1706, "\u5695": 1707, "\u569f": 1708, "\u56a3": 1709, "\u56a5": 1710, "\u56a8": 1711, "\u56ae": 1712, "\u56b4": 1713, "\u56b7": 1714, "\u56bc": 1715, "\u56c2": 1716, "\u56c9": 1717, "\u56ca": 1718, "\u56cd": 1719, "\u56d1": 1720, "\u56d4": 1721, "\u56d7": 1722, "\u56da": 1723, "\u56db": 1724, "\u56dd": 1725, "\u56de": 1726, "\u56df": 1727, "\u56e0": 1728, "\u56e1": 1729, "\u56e2": 1730, "\u56e3": 1731, "\u56e4": 1732, "\u56e7": 1733, "\u56ea": 1734, "\u56eb": 1735, "\u56ed": 1736, "\u56f0": 1737, "\u56f1": 1738, "\u56f2": 1739, "\u56f3": 1740, "\u56f4": 1741, "\u56f9": 1742, "\u56fa": 1743, "\u56fd": 1744, "\u56fe": 1745, "\u56ff": 1746, "\u5703": 1747, "\u5704": 1748, "\u5706": 1749, "\u5708": 1750, "\u570b": 1751, "\u570d": 1752, "\u570f": 1753, "\u5712": 1754, "\u5713": 1755, "\u5716": 1756, "\u5718": 1757, "\u571c": 1758, "\u571f": 1759, "\u5723": 1760, "\u5727": 1761, "\u5728": 1762, "\u5729": 1763, "\u572d": 1764, "\u5730": 1765, "\u5733": 1766, "\u573a": 1767, "\u573b": 1768, "\u573e": 1769, "\u5740": 1770, "\u5742": 1771, "\u5747": 1772, "\u574a": 1773, "\u574d": 1774, "\u574e": 1775, "\u574f": 1776, "\u5750": 1777, "\u5751": 1778, "\u5757": 1779, "\u575a": 1780, "\u575b": 1781, "\u575d": 1782, "\u575e": 1783, "\u575f": 1784, "\u5760": 1785, "\u5761": 1786, "\u5764": 1787, "\u5766": 1788, "\u5768": 1789, "\u576a": 1790, "\u576f": 1791, "\u5773": 1792, "\u5775": 1793, "\u5777": 1794, "\u5782": 1795, "\u5783": 1796, "\u5784": 1797, "\u578b": 1798, "\u5792": 1799, "\u579a": 1800, "\u579b": 1801, "\u57a0": 1802, "\u57a2": 1803, "\u57a3": 1804, "\u57a6": 1805, "\u57a9": 1806, "\u57ab": 1807, "\u57ad": 1808, "\u57ae": 1809, "\u57b5": 1810, "\u57c2": 1811, "\u57c3": 1812, "\u57cb": 1813, "\u57ce": 1814, "\u57d4": 1815, "\u57d5": 1816, "\u57d7": 1817, "\u57df": 1818, "\u57e0": 1819, "\u57e4": 1820, "\u57f5": 1821, "\u57f7": 1822, "\u57f8": 1823, "\u57f9": 1824, "\u57fa": 1825, "\u57fc": 1826, "\u5800": 1827, "\u5802": 1828, "\u5803": 1829, "\u5805": 1830, "\u5806": 1831, "\u5807": 1832, "\u5811": 1833, "\u5815": 1834, "\u5819": 1835, "\u5821": 1836, "\u5824": 1837, "\u582a": 1838, "\u582f": 1839, "\u5830": 1840, "\u5831": 1841, "\u5834": 1842, "\u5835": 1843, "\u583a": 1844, "\u583f": 1845, "\u584a": 1846, "\u584c": 1847, "\u5851": 1848, "\u5854": 1849, "\u5857": 1850, "\u5858": 1851, "\u585a": 1852, "\u585e": 1853, "\u5862": 1854, "\u5869": 1855, "\u586b": 1856, "\u586c": 1857, "\u586d": 1858, "\u5875": 1859, "\u587e": 1860, "\u5880": 1861, "\u5883": 1862, "\u5885": 1863, "\u5889": 1864, "\u588a": 1865, "\u5892": 1866, "\u5893": 1867, "\u5897": 1868, "\u5898": 1869, "\u5899": 1870, "\u589c": 1871, "\u589e": 1872, "\u589f": 1873, "\u58a8": 1874, "\u58a9": 1875, "\u58ae": 1876, "\u58b3": 1877, "\u58bb": 1878, "\u58be": 1879, "\u58c1": 1880, "\u58c5": 1881, "\u58c6": 1882, "\u58c7": 1883, "\u58ca": 1884, "\u58d1": 1885, "\u58d3": 1886, "\u58d5": 1887, "\u58d8": 1888, "\u58de": 1889, "\u58df": 1890, "\u58e2": 1891, "\u58e4": 1892, "\u58e9": 1893, "\u58eb": 1894, "\u58ec": 1895, "\u58ee": 1896, "\u58ef": 1897, "\u58f0": 1898, "\u58f2": 1899, "\u58f3": 1900, "\u58f6": 1901, "\u58f9": 1902, "\u58fa": 1903, "\u58fd": 1904, "\u5904": 1905, "\u5907": 1906, "\u5909": 1907, "\u590d": 1908, "\u590f": 1909, "\u5914": 1910, "\u5915": 1911, "\u5916": 1912, "\u5919": 1913, "\u591a": 1914, "\u591c": 1915, "\u591f": 1916, "\u5920": 1917, "\u5922": 1918, "\u5925": 1919, "\u5927": 1920, "\u5929": 1921, "\u592a": 1922, "\u592b": 1923, "\u592d": 1924, "\u592e": 1925, "\u592f": 1926, "\u5931": 1927, "\u5934": 1928, "\u5937": 1929, "\u5938": 1930, "\u5939": 1931, "\u593a": 1932, "\u593e": 1933, "\u5942": 1934, "\u5944": 1935, "\u5947": 1936, "\u5948": 1937, "\u5949": 1938, "\u594b": 1939, "\u594e": 1940, "\u594f": 1941, "\u5950": 1942, "\u5951": 1943, "\u5954": 1944, "\u5955": 1945, "\u5956": 1946, "\u5957": 1947, "\u5958": 1948, "\u595a": 1949, "\u5960": 1950, "\u5962": 1951, "\u5965": 1952, "\u5967": 1953, "\u596a": 1954, "\u596c": 1955, "\u596e": 1956, "\u5973": 1957, "\u5974": 1958, "\u5976": 1959, "\u5978": 1960, "\u5979": 1961, "\u597d": 1962, "\u5982": 1963, "\u5983": 1964, "\u5984": 1965, "\u5986": 1966, "\u5987": 1967, "\u5988": 1968, "\u598a": 1969, "\u598d": 1970, "\u5992": 1971, "\u5993": 1972, "\u5996": 1973, "\u5998": 1974, "\u5999": 1975, "\u599d": 1976, "\u599e": 1977, "\u59a3": 1978, "\u59a4": 1979, "\u59a5": 1980, "\u59a8": 1981, "\u59a9": 1982, "\u59aa": 1983, "\u59ae": 1984, "\u59b2": 1985, "\u59b3": 1986, "\u59b9": 1987, "\u59bb": 1988, "\u59be": 1989, "\u59c6": 1990, "\u59c9": 1991, "\u59ca": 1992, "\u59cb": 1993, "\u59cd": 1994, "\u59d0": 1995, "\u59d1": 1996, "\u59d2": 1997, "\u59d3": 1998, "\u59d4": 1999, "\u59d7": 2000, "\u59da": 2001, "\u59dc": 2002, "\u59dd": 2003, "\u59e3": 2004, "\u59e5": 2005, "\u59e6": 2006, "\u59e8": 2007, "\u59ea": 2008, "\u59eb": 2009, "\u59ec": 2010, "\u59f9": 2011, "\u59fb": 2012, "\u59ff": 2013, "\u5a01": 2014, "\u5a03": 2015, "\u5a04": 2016, "\u5a05": 2017, "\u5a06": 2018, "\u5a07": 2019, "\u5a09": 2020, "\u5a11": 2021, "\u5a13": 2022, "\u5a18": 2023, "\u5a1b": 2024, "\u5a1c": 2025, "\u5a1f": 2026, "\u5a20": 2027, "\u5a23": 2028, "\u5a25": 2029, "\u5a29": 2030, "\u5a31": 2031, "\u5a32": 2032, "\u5a34": 2033, "\u5a36": 2034, "\u5a3c": 2035, "\u5a40": 2036, "\u5a41": 2037, "\u5a46": 2038, "\u5a49": 2039, "\u5a4a": 2040, "\u5a55": 2041, "\u5a5a": 2042, "\u5a62": 2043, "\u5a66": 2044, "\u5a67": 2045, "\u5a6a": 2046, "\u5a6d": 2047, "\u5a74": 2048, "\u5a75": 2049, "\u5a76": 2050, "\u5a77": 2051, "\u5a7a": 2052, "\u5a7f": 2053, "\u5a92": 2054, "\u5a9a": 2055, "\u5a9b": 2056, "\u5a9e": 2057, "\u5aa7": 2058, "\u5ab2": 2059, "\u5ab3": 2060, "\u5abd": 2061, "\u5abe": 2062, "\u5ac1": 2063, "\u5ac2": 2064, "\u5ac9": 2065, "\u5acc": 2066, "\u5ad1": 2067, "\u5ad4": 2068, "\u5ad6": 2069, "\u5ad8": 2070, "\u5ada": 2071, "\u5ae1": 2072, "\u5ae3": 2073, "\u5ae6": 2074, "\u5ae9": 2075, "\u5af2": 2076, "\u5af5": 2077, "\u5afb": 2078, "\u5b05": 2079, "\u5b09": 2080, "\u5b0c": 2081, "\u5b17": 2082, "\u5b1b": 2083, "\u5b22": 2084, "\u5b24": 2085, "\u5b2a": 2086, "\u5b30": 2087, "\u5b34": 2088, "\u5b37": 2089, "\u5b38": 2090, "\u5b3f": 2091, "\u5b40": 2092, "\u5b43": 2093, "\u5b50": 2094, "\u5b51": 2095, "\u5b54": 2096, "\u5b55": 2097, "\u5b56": 2098, "\u5b57": 2099, "\u5b58": 2100, "\u5b59": 2101, "\u5b5a": 2102, "\u5b5b": 2103, "\u5b5c": 2104, "\u5b5d": 2105, "\u5b5f": 2106, "\u5b62": 2107, "\u5b63": 2108, "\u5b64": 2109, "\u5b66": 2110, "\u5b69": 2111, "\u5b6a": 2112, "\u5b6b": 2113, "\u5b6c": 2114, "\u5b70": 2115, "\u5b71": 2116, "\u5b73": 2117, "\u5b75": 2118, "\u5b78": 2119, "\u5b7a": 2120, "\u5b7d": 2121, "\u5b7f": 2122, "\u5b81": 2123, "\u5b83": 2124, "\u5b85": 2125, "\u5b87": 2126, "\u5b88": 2127, "\u5b89": 2128, "\u5b8b": 2129, "\u5b8c": 2130, "\u5b8f": 2131, "\u5b93": 2132, "\u5b95": 2133, "\u5b97": 2134, "\u5b98": 2135, "\u5b99": 2136, "\u5b9a": 2137, "\u5b9b": 2138, "\u5b9c": 2139, "\u5b9d": 2140, "\u5b9e": 2141, "\u5b9f": 2142, "\u5ba0": 2143, "\u5ba1": 2144, "\u5ba2": 2145, "\u5ba3": 2146, "\u5ba4": 2147, "\u5ba5": 2148, "\u5ba6": 2149, "\u5baa": 2150, "\u5bab": 2151, "\u5bae": 2152, "\u5bb0": 2153, "\u5bb3": 2154, "\u5bb4": 2155, "\u5bb5": 2156, "\u5bb6": 2157, "\u5bb8": 2158, "\u5bb9": 2159, "\u5bbd": 2160, "\u5bbe": 2161, "\u5bbf": 2162, "\u5bc2": 2163, "\u5bc4": 2164, "\u5bc5": 2165, "\u5bc6": 2166, "\u5bc7": 2167, "\u5bcc": 2168, "\u5bd0": 2169, "\u5bd2": 2170, "\u5bd3": 2171, "\u5bdb": 2172, "\u5bdd": 2173, "\u5bde": 2174, "\u5bdf": 2175, "\u5be1": 2176, "\u5be2": 2177, "\u5be5": 2178, "\u5be6": 2179, "\u5be7": 2180, "\u5be8": 2181, "\u5be9": 2182, "\u5beb": 2183, "\u5bec": 2184, "\u5bee": 2185, "\u5bf0": 2186, "\u5bf5": 2187, "\u5bf6": 2188, "\u5bf8": 2189, "\u5bf9": 2190, "\u5bfa": 2191, "\u5bfb": 2192, "\u5bfc": 2193, "\u5bfe": 2194, "\u5bff": 2195, "\u5c01": 2196, "\u5c02": 2197, "\u5c04": 2198, "\u5c06": 2199, "\u5c07": 2200, "\u5c08": 2201, "\u5c09": 2202, "\u5c0a": 2203, "\u5c0b": 2204, "\u5c0d": 2205, "\u5c0e": 2206, "\u5c0f": 2207, "\u5c11": 2208, "\u5c14": 2209, "\u5c15": 2210, "\u5c16": 2211, "\u5c18": 2212, "\u5c1a": 2213, "\u5c1d": 2214, "\u5c24": 2215, "\u5c27": 2216, "\u5c2c": 2217, "\u5c31": 2218, "\u5c34": 2219, "\u5c37": 2220, "\u5c38": 2221, "\u5c39": 2222, "\u5c3a": 2223, "\u5c3b": 2224, "\u5c3c": 2225, "\u5c3d": 2226, "\u5c3e": 2227, "\u5c3f": 2228, "\u5c40": 2229, "\u5c41": 2230, "\u5c42": 2231, "\u5c44": 2232, "\u5c45": 2233, "\u5c46": 2234, "\u5c48": 2235, "\u5c49": 2236, "\u5c4a": 2237, "\u5c4b": 2238, "\u5c4c": 2239, "\u5c4d": 2240, "\u5c4e": 2241, "\u5c4f": 2242, "\u5c50": 2243, "\u5c51": 2244, "\u5c55": 2245, "\u5c5c": 2246, "\u5c5e": 2247, "\u5c60": 2248, "\u5c61": 2249, "\u5c62": 2250, "\u5c64": 2251, "\u5c65": 2252, "\u5c6c": 2253, "\u5c6f": 2254, "\u5c71": 2255, "\u5c79": 2256, "\u5c7f": 2257, "\u5c80": 2258, "\u5c81": 2259, "\u5c82": 2260, "\u5c8c": 2261, "\u5c90": 2262, "\u5c91": 2263, "\u5c94": 2264, "\u5c96": 2265, "\u5c97": 2266, "\u5c98": 2267, "\u5c99": 2268, "\u5c9a": 2269, "\u5c9b": 2270, "\u5ca1": 2271, "\u5ca9": 2272, "\u5cab": 2273, "\u5cac": 2274, "\u5cad": 2275, "\u5cb1": 2276, "\u5cb3": 2277, "\u5cb7": 2278, "\u5cb8": 2279, "\u5cc7": 2280, "\u5ccb": 2281, "\u5cd2": 2282, "\u5cd9": 2283, "\u5ce1": 2284, "\u5ce4": 2285, "\u5ce5": 2286, "\u5ce6": 2287, "\u5ce8": 2288, "\u5cea": 2289, "\u5ced": 2290, "\u5cef": 2291, "\u5cf0": 2292, "\u5cf4": 2293, "\u5cf6": 2294, "\u5cfb": 2295, "\u5cfd": 2296, "\u5d01": 2297, "\u5d02": 2298, "\u5d06": 2299, "\u5d07": 2300, "\u5d0e": 2301, "\u5d11": 2302, "\u5d14": 2303, "\u5d16": 2304, "\u5d17": 2305, "\u5d19": 2306, "\u5d1b": 2307, "\u5d27": 2308, "\u5d29": 2309, "\u5d2d": 2310, "\u5d34": 2311, "\u5d3d": 2312, "\u5d47": 2313, "\u5d4a": 2314, "\u5d4b": 2315, "\u5d4c": 2316, "\u5d50": 2317, "\u5d58": 2318, "\u5d69": 2319, "\u5d6c": 2320, "\u5d6f": 2321, "\u5d82": 2322, "\u5d84": 2323, "\u5d87": 2324, "\u5d8b": 2325, "\u5d99": 2326, "\u5dba": 2327, "\u5dbc": 2328, "\u5dbd": 2329, "\u5dc5": 2330, "\u5dcd": 2331, "\u5dd2": 2332, "\u5dd4": 2333, "\u5dd6": 2334, "\u5ddd": 2335, "\u5dde": 2336, "\u5de1": 2337, "\u5de2": 2338, "\u5de5": 2339, "\u5de6": 2340, "\u5de7": 2341, "\u5de8": 2342, "\u5de9": 2343, "\u5deb": 2344, "\u5dee": 2345, "\u5df1": 2346, "\u5df2": 2347, "\u5df3": 2348, "\u5df4": 2349, "\u5df7": 2350, "\u5dfb": 2351, "\u5dfd": 2352, "\u5dfe": 2353, "\u5dff": 2354, "\u5e01": 2355, "\u5e02": 2356, "\u5e03": 2357, "\u5e05": 2358, "\u5e06": 2359, "\u5e08": 2360, "\u5e0c": 2361, "\u5e10": 2362, "\u5e11": 2363, "\u5e15": 2364, "\u5e16": 2365, "\u5e18": 2366, "\u5e1a": 2367, "\u5e1b": 2368, "\u5e1c": 2369, "\u5e1d": 2370, "\u5e25": 2371, "\u5e26": 2372, "\u5e27": 2373, "\u5e2b": 2374, "\u5e2d": 2375, "\u5e2e": 2376, "\u5e2f": 2377, "\u5e30": 2378, "\u5e33": 2379, "\u5e36": 2380, "\u5e37": 2381, "\u5e38": 2382, "\u5e3c": 2383, "\u5e3d": 2384, "\u5e40": 2385, "\u5e42": 2386, "\u5e44": 2387, "\u5e45": 2388, "\u5e4c": 2389, "\u5e54": 2390, "\u5e55": 2391, "\u5e5f": 2392, "\u5e61": 2393, "\u5e62": 2394, "\u5e63": 2395, "\u5e6b": 2396, "\u5e72": 2397, "\u5e73": 2398, "\u5e74": 2399, "\u5e76": 2400, "\u5e78": 2401, "\u5e79": 2402, "\u5e7a": 2403, "\u5e7b": 2404, "\u5e7c": 2405, "\u5e7d": 2406, "\u5e7e": 2407, "\u5e7f": 2408, "\u5e81": 2409, "\u5e83": 2410, "\u5e84": 2411, "\u5e86": 2412, "\u5e87": 2413, "\u5e8a": 2414, "\u5e8f": 2415, "\u5e90": 2416, "\u5e93": 2417, "\u5e94": 2418, "\u5e95": 2419, "\u5e96": 2420, "\u5e97": 2421, "\u5e99": 2422, "\u5e9a": 2423, "\u5e9c": 2424, "\u5e9e": 2425, "\u5e9f": 2426, "\u5ea0": 2427, "\u5ea6": 2428, "\u5ea7": 2429, "\u5eab": 2430, "\u5ead": 2431, "\u5eb5": 2432, "\u5eb6": 2433, "\u5eb7": 2434, "\u5eb8": 2435, "\u5eb9": 2436, "\u5ebe": 2437, "\u5ec1": 2438, "\u5ec2": 2439, "\u5ec3": 2440, "\u5ec8": 2441, "\u5ec9": 2442, "\u5eca": 2443, "\u5ed3": 2444, "\u5ed6": 2445, "\u5eda": 2446, "\u5edd": 2447, "\u5edf": 2448, "\u5ee0": 2449, "\u5ee2": 2450, "\u5ee3": 2451, "\u5eec": 2452, "\u5ef3": 2453, "\u5ef6": 2454, "\u5ef7": 2455, "\u5efa": 2456, "\u5eff": 2457, "\u5f00": 2458, "\u5f01": 2459, "\u5f02": 2460, "\u5f03": 2461, "\u5f04": 2462, "\u5f08": 2463, "\u5f0a": 2464, "\u5f0b": 2465, "\u5f0f": 2466, "\u5f11": 2467, "\u5f12": 2468, "\u5f13": 2469, "\u5f14": 2470, "\u5f15": 2471, "\u5f17": 2472, "\u5f18": 2473, "\u5f1b": 2474, "\u5f1f": 2475, "\u5f20": 2476, "\u5f25": 2477, "\u5f26": 2478, "\u5f27": 2479, "\u5f29": 2480, "\u5f2d": 2481, "\u5f2f": 2482, "\u5f31": 2483, "\u5f35": 2484, "\u5f37": 2485, "\u5f39": 2486, "\u5f3a": 2487, "\u5f3c": 2488, "\u5f3e": 2489, "\u5f45": 2490, "\u5f46": 2491, "\u5f48": 2492, "\u5f4c": 2493, "\u5f4e": 2494, "\u5f52": 2495, "\u5f53": 2496, "\u5f55": 2497, "\u5f57": 2498, "\u5f59": 2499, "\u5f5d": 2500, "\u5f62": 2501, "\u5f64": 2502, "\u5f65": 2503, "\u5f66": 2504, "\u5f67": 2505, "\u5f69": 2506, "\u5f6a": 2507, "\u5f6b": 2508, "\u5f6c": 2509, "\u5f6d": 2510, "\u5f70": 2511, "\u5f71": 2512, "\u5f77": 2513, "\u5f79": 2514, "\u5f7b": 2515, "\u5f7c": 2516, "\u5f7f": 2517, "\u5f80": 2518, "\u5f81": 2519, "\u5f84": 2520, "\u5f85": 2521, "\u5f87": 2522, "\u5f88": 2523, "\u5f89": 2524, "\u5f8a": 2525, "\u5f8b": 2526, "\u5f8c": 2527, "\u5f90": 2528, "\u5f91": 2529, "\u5f92": 2530, "\u5f93": 2531, "\u5f95": 2532, "\u5f97": 2533, "\u5f98": 2534, "\u5f99": 2535, "\u5f9c": 2536, "\u5f9e": 2537, "\u5fa0": 2538, "\u5fa1": 2539, "\u5fa8": 2540, "\u5fa9": 2541, "\u5faa": 2542, "\u5fac": 2543, "\u5fae": 2544, "\u5fb3": 2545, "\u5fb4": 2546, "\u5fb5": 2547, "\u5fb7": 2548, "\u5fb9": 2549, "\u5fbc": 2550, "\u5fbd": 2551, "\u5fc3": 2552, "\u5fc5": 2553, "\u5fc6": 2554, "\u5fcc": 2555, "\u5fcd": 2556, "\u5fcf": 2557, "\u5fd0": 2558, "\u5fd1": 2559, "\u5fd2": 2560, "\u5fd6": 2561, "\u5fd7": 2562, "\u5fd8": 2563, "\u5fd9": 2564, "\u5fdc": 2565, "\u5fe0": 2566, "\u5fe1": 2567, "\u5fe4": 2568, "\u5fe7": 2569, "\u5fea": 2570, "\u5feb": 2571, "\u5ff1": 2572, "\u5ff5": 2573, "\u5ffb": 2574, "\u5ffd": 2575, "\u5fff": 2576, "\u6000": 2577, "\u6001": 2578, "\u6002": 2579, "\u6005": 2580, "\u6006": 2581, "\u600e": 2582, "\u600f": 2583, "\u6012": 2584, "\u6014": 2585, "\u6015": 2586, "\u6016": 2587, "\u6019": 2588, "\u601c": 2589, "\u601d": 2590, "\u6020": 2591, "\u6021": 2592, "\u6025": 2593, "\u6026": 2594, "\u6027": 2595, "\u6028": 2596, "\u602a": 2597, "\u602f": 2598, "\u6035": 2599, "\u603b": 2600, "\u603c": 2601, "\u6041": 2602, "\u6043": 2603, "\u6046": 2604, "\u604b": 2605, "\u604d": 2606, "\u6050": 2607, "\u6052": 2608, "\u6055": 2609, "\u6059": 2610, "\u605a": 2611, "\u6062": 2612, "\u6063": 2613, "\u6064": 2614, "\u6065": 2615, "\u6068": 2616, "\u6069": 2617, "\u606a": 2618, "\u606b": 2619, "\u606c": 2620, "\u606d": 2621, "\u606f": 2622, "\u6070": 2623, "\u6073": 2624, "\u6075": 2625, "\u6076": 2626, "\u6078": 2627, "\u607a": 2628, "\u607b": 2629, "\u607c": 2630, "\u607f": 2631, "\u6084": 2632, "\u6085": 2633, "\u6089": 2634, "\u608c": 2635, "\u608d": 2636, "\u6094": 2637, "\u6096": 2638, "\u609a": 2639, "\u609f": 2640, "\u60a0": 2641, "\u60a3": 2642, "\u60a6": 2643, "\u60a8": 2644, "\u60a9": 2645, "\u60aa": 2646, "\u60ac": 2647, "\u60af": 2648, "\u60b1": 2649, "\u60b2": 2650, "\u60b4": 2651, "\u60b5": 2652, "\u60b6": 2653, "\u60b8": 2654, "\u60bb": 2655, "\u60bc": 2656, "\u60bd": 2657, "\u60c5": 2658, "\u60c6": 2659, "\u60c7": 2660, "\u60ca": 2661, "\u60cb": 2662, "\u60d1": 2663, "\u60d5": 2664, "\u60d8": 2665, "\u60da": 2666, "\u60dc": 2667, "\u60df": 2668, "\u60e0": 2669, "\u60e1": 2670, "\u60e6": 2671, "\u60e7": 2672, "\u60e8": 2673, "\u60e9": 2674, "\u60eb": 2675, "\u60ec": 2676, "\u60ed": 2677, "\u60ee": 2678, "\u60ef": 2679, "\u60f0": 2680, "\u60f1": 2681, "\u60f3": 2682, "\u60f4": 2683, "\u60f6": 2684, "\u60f9": 2685, "\u60fa": 2686, "\u6101": 2687, "\u6106": 2688, "\u6108": 2689, "\u6109": 2690, "\u610d": 2691, "\u610f": 2692, "\u6115": 2693, "\u611a": 2694, "\u611b": 2695, "\u611c": 2696, "\u611f": 2697, "\u6123": 2698, "\u6124": 2699, "\u6127": 2700, "\u612b": 2701, "\u6137": 2702, "\u613f": 2703, "\u6144": 2704, "\u6148": 2705, "\u614b": 2706, "\u614c": 2707, "\u614e": 2708, "\u6151": 2709, "\u6155": 2710, "\u6158": 2711, "\u615a": 2712, "\u615f": 2713, "\u6162": 2714, "\u6163": 2715, "\u6167": 2716, "\u6168": 2717, "\u616b": 2718, "\u616e": 2719, "\u6170": 2720, "\u6173": 2721, "\u6175": 2722, "\u6176": 2723, "\u6177": 2724, "\u617e": 2725, "\u6182": 2726, "\u618a": 2727, "\u618b": 2728, "\u618e": 2729, "\u6190": 2730, "\u6191": 2731, "\u6194": 2732, "\u619a": 2733, "\u61a4": 2734, "\u61a7": 2735, "\u61a8": 2736, "\u61a9": 2737, "\u61ab": 2738, "\u61ac": 2739, "\u61b2": 2740, "\u61b6": 2741, "\u61be": 2742, "\u61c2": 2743, "\u61c7": 2744, "\u61c8": 2745, "\u61c9": 2746, "\u61ca": 2747, "\u61cb": 2748, "\u61d1": 2749, "\u61d2": 2750, "\u61e6": 2751, "\u61f2": 2752, "\u61f5": 2753, "\u61f6": 2754, "\u61f7": 2755, "\u61f8": 2756, "\u61fa": 2757, "\u61fc": 2758, "\u61fe": 2759, "\u61ff": 2760, "\u6200": 2761, "\u6208": 2762, "\u620a": 2763, "\u620c": 2764, "\u620d": 2765, "\u620e": 2766, "\u620f": 2767, "\u6210": 2768, "\u6211": 2769, "\u6212": 2770, "\u6215": 2771, "\u6216": 2772, "\u6218": 2773, "\u621a": 2774, "\u621b": 2775, "\u621f": 2776, "\u6221": 2777, "\u6226": 2778, "\u622a": 2779, "\u622c": 2780, "\u622e": 2781, "\u6230": 2782, "\u6232": 2783, "\u6233": 2784, "\u6234": 2785, "\u6236": 2786, "\u6237": 2787, "\u6238": 2788, "\u623b": 2789, "\u623e": 2790, "\u623f": 2791, "\u6240": 2792, "\u6241": 2793, "\u6247": 2794, "\u6248": 2795, "\u6249": 2796, "\u624b": 2797, "\u624d": 2798, "\u624e": 2799, "\u6251": 2800, "\u6252": 2801, "\u6253": 2802, "\u6254": 2803, "\u6255": 2804, "\u6258": 2805, "\u625b": 2806, "\u6263": 2807, "\u6266": 2808, "\u6267": 2809, "\u6269": 2810, "\u626a": 2811, "\u626b": 2812, "\u626c": 2813, "\u626d": 2814, "\u626e": 2815, "\u626f": 2816, "\u6270": 2817, "\u6271": 2818, "\u6273": 2819, "\u6276": 2820, "\u6279": 2821, "\u627c": 2822, "\u627e": 2823, "\u627f": 2824, "\u6280": 2825, "\u6284": 2826, "\u6289": 2827, "\u628a": 2828, "\u6291": 2829, "\u6292": 2830, "\u6293": 2831, "\u6295": 2832, "\u6296": 2833, "\u6297": 2834, "\u6298": 2835, "\u629a": 2836, "\u629b": 2837, "\u629c": 2838, "\u629e": 2839, "\u629f": 2840, "\u62a0": 2841, "\u62a1": 2842, "\u62a2": 2843, "\u62a4": 2844, "\u62a5": 2845, "\u62a8": 2846, "\u62ab": 2847, "\u62ac": 2848, "\u62b1": 2849, "\u62b5": 2850, "\u62b9": 2851, "\u62bc": 2852, "\u62bd": 2853, "\u62bf": 2854, "\u62c2": 2855, "\u62c4": 2856, "\u62c5": 2857, "\u62c6": 2858, "\u62c7": 2859, "\u62c8": 2860, "\u62c9": 2861, "\u62cb": 2862, "\u62cc": 2863, "\u62cd": 2864, "\u62ce": 2865, "\u62d0": 2866, "\u62d2": 2867, "\u62d3": 2868, "\u62d4": 2869, "\u62d6": 2870, "\u62d7": 2871, "\u62d8": 2872, "\u62d9": 2873, "\u62da": 2874, "\u62db": 2875, "\u62dc": 2876, "\u62df": 2877, "\u62e1": 2878, "\u62e2": 2879, "\u62e3": 2880, "\u62e5": 2881, "\u62e6": 2882, "\u62e7": 2883, "\u62e8": 2884, "\u62e9": 2885, "\u62ec": 2886, "\u62ed": 2887, "\u62ee": 2888, "\u62ef": 2889, "\u62f1": 2890, "\u62f3": 2891, "\u62f4": 2892, "\u62f7": 2893, "\u62fc": 2894, "\u62fd": 2895, "\u62fe": 2896, "\u62ff": 2897, "\u6301": 2898, "\u6302": 2899, "\u6307": 2900, "\u6308": 2901, "\u6309": 2902, "\u630e": 2903, "\u6311": 2904, "\u6316": 2905, "\u6319": 2906, "\u631a": 2907, "\u631b": 2908, "\u631d": 2909, "\u631e": 2910, "\u631f": 2911, "\u6320": 2912, "\u6321": 2913, "\u6323": 2914, "\u6324": 2915, "\u6325": 2916, "\u6328": 2917, "\u632a": 2918, "\u632b": 2919, "\u632f": 2920, "\u6332": 2921, "\u6339": 2922, "\u633a": 2923, "\u633d": 2924, "\u633e": 2925, "\u6342": 2926, "\u6345": 2927, "\u6346": 2928, "\u6349": 2929, "\u634b": 2930, "\u634c": 2931, "\u634d": 2932, "\u634e": 2933, "\u634f": 2934, "\u6350": 2935, "\u6355": 2936, "\u635e": 2937, "\u635f": 2938, "\u6361": 2939, "\u6362": 2940, "\u6363": 2941, "\u6367": 2942, "\u6368": 2943, "\u6369": 2944, "\u636e": 2945, "\u6371": 2946, "\u6372": 2947, "\u6376": 2948, "\u6377": 2949, "\u637a": 2950, "\u637b": 2951, "\u6380": 2952, "\u6382": 2953, "\u6383": 2954, "\u6387": 2955, "\u6388": 2956, "\u6389": 2957, "\u638c": 2958, "\u638f": 2959, "\u6390": 2960, "\u6392": 2961, "\u6396": 2962, "\u6398": 2963, "\u6399": 2964, "\u639b": 2965, "\u63a0": 2966, "\u63a1": 2967, "\u63a2": 2968, "\u63a3": 2969, "\u63a5": 2970, "\u63a7": 2971, "\u63a8": 2972, "\u63a9": 2973, "\u63aa": 2974, "\u63ac": 2975, "\u63b0": 2976, "\u63b2": 2977, "\u63b3": 2978, "\u63b4": 2979, "\u63b7": 2980, "\u63b8": 2981, "\u63ba": 2982, "\u63c0": 2983, "\u63c3": 2984, "\u63c4": 2985, "\u63c6": 2986, "\u63c9": 2987, "\u63cd": 2988, "\u63cf": 2989, "\u63d0": 2990, "\u63d2": 2991, "\u63d6": 2992, "\u63da": 2993, "\u63db": 2994, "\u63e1": 2995, "\u63e3": 2996, "\u63e9": 2997, "\u63ea": 2998, "\u63ed": 2999, "\u63ee": 3000, "\u63f4": 3001, "\u63f6": 3002, "\u63f8": 3003, "\u63f9": 3004, "\u63fd": 3005, "\u6400": 3006, "\u6401": 3007, "\u6402": 3008, "\u6405": 3009, "\u640d": 3010, "\u640f": 3011, "\u6410": 3012, "\u6413": 3013, "\u6414": 3014, "\u6416": 3015, "\u6417": 3016, "\u641c": 3017, "\u641e": 3018, "\u6421": 3019, "\u642a": 3020, "\u642c": 3021, "\u642d": 3022, "\u6435": 3023, "\u6436": 3024, "\u643a": 3025, "\u643d": 3026, "\u6440": 3027, "\u6441": 3028, "\u6444": 3029, "\u6446": 3030, "\u6447": 3031, "\u6448": 3032, "\u644a": 3033, "\u6452": 3034, "\u6454": 3035, "\u6458": 3036, "\u645e": 3037, "\u645f": 3038, "\u6467": 3039, "\u6469": 3040, "\u646f": 3041, "\u6473": 3042, "\u6478": 3043, "\u6479": 3044, "\u647a": 3045, "\u647b": 3046, "\u6482": 3047, "\u6483": 3048, "\u6485": 3049, "\u6487": 3050, "\u6488": 3051, "\u6490": 3052, "\u6491": 3053, "\u6492": 3054, "\u6493": 3055, "\u6495": 3056, "\u649a": 3057, "\u649e": 3058, "\u64a4": 3059, "\u64a5": 3060, "\u64a9": 3061, "\u64ab": 3062, "\u64ac": 3063, "\u64ad": 3064, "\u64ae": 3065, "\u64b0": 3066, "\u64b2": 3067, "\u64b5": 3068, "\u64b7": 3069, "\u64b8": 3070, "\u64bb": 3071, "\u64bc": 3072, "\u64bf": 3073, "\u64c0": 3074, "\u64c1": 3075, "\u64c2": 3076, "\u64c4": 3077, "\u64c5": 3078, "\u64c7": 3079, "\u64ca": 3080, "\u64cb": 3081, "\u64cd": 3082, "\u64ce": 3083, "\u64d2": 3084, "\u64d4": 3085, "\u64d8": 3086, "\u64da": 3087, "\u64de": 3088, "\u64e0": 3089, "\u64e1": 3090, "\u64e2": 3091, "\u64e6": 3092, "\u64ec": 3093, "\u64f0": 3094, "\u64f1": 3095, "\u64f2": 3096, "\u64f4": 3097, "\u64f7": 3098, "\u64fa": 3099, "\u64fc": 3100, "\u64fe": 3101, "\u6500": 3102, "\u650f": 3103, "\u6512": 3104, "\u6514": 3105, "\u6518": 3106, "\u6519": 3107, "\u651c": 3108, "\u651d": 3109, "\u651e": 3110, "\u6522": 3111, "\u6523": 3112, "\u6524": 3113, "\u6525": 3114, "\u652a": 3115, "\u652b": 3116, "\u652c": 3117, "\u652f": 3118, "\u6536": 3119, "\u6538": 3120, "\u6539": 3121, "\u653b": 3122, "\u653e": 3123, "\u653f": 3124, "\u6545": 3125, "\u6548": 3126, "\u654c": 3127, "\u654d": 3128, "\u654e": 3129, "\u654f": 3130, "\u6551": 3131, "\u6555": 3132, "\u6556": 3133, "\u6557": 3134, "\u6558": 3135, "\u6559": 3136, "\u655b": 3137, "\u655d": 3138, "\u655e": 3139, "\u6562": 3140, "\u6563": 3141, "\u6566": 3142, "\u656c": 3143, "\u6570": 3144, "\u6572": 3145, "\u6574": 3146, "\u6575": 3147, "\u6577": 3148, "\u6578": 3149, "\u6582": 3150, "\u6583": 3151, "\u6587": 3152, "\u658b": 3153, "\u658c": 3154, "\u658e": 3155, "\u6590": 3156, "\u6591": 3157, "\u6593": 3158, "\u6597": 3159, "\u6599": 3160, "\u659b": 3161, "\u659c": 3162, "\u659f": 3163, "\u65a1": 3164, "\u65a4": 3165, "\u65a5": 3166, "\u65a7": 3167, "\u65a9": 3168, "\u65ab": 3169, "\u65ac": 3170, "\u65ad": 3171, "\u65af": 3172, "\u65b0": 3173, "\u65b7": 3174, "\u65b9": 3175, "\u65bc": 3176, "\u65bd": 3177, "\u65c1": 3178, "\u65c3": 3179, "\u65c5": 3180, "\u65cb": 3181, "\u65cc": 3182, "\u65ce": 3183, "\u65cf": 3184, "\u65d6": 3185, "\u65d7": 3186, "\u65e0": 3187, "\u65e2": 3188, "\u65e5": 3189, "\u65e6": 3190, "\u65e7": 3191, "\u65e8": 3192, "\u65e9": 3193, "\u65ec": 3194, "\u65ed": 3195, "\u65ee": 3196, "\u65f1": 3197, "\u65f6": 3198, "\u65f7": 3199, "\u65fa": 3200, "\u65fb": 3201, "\u6600": 3202, "\u6602": 3203, "\u6606": 3204, "\u6607": 3205, "\u6609": 3206, "\u660a": 3207, "\u660c": 3208, "\u660e": 3209, "\u660f": 3210, "\u6613": 3211, "\u6614": 3212, "\u6615": 3213, "\u6619": 3214, "\u661f": 3215, "\u6620": 3216, "\u6625": 3217, "\u6627": 3218, "\u6628": 3219, "\u662d": 3220, "\u662f": 3221, "\u6631": 3222, "\u6634": 3223, "\u6635": 3224, "\u6636": 3225, "\u663c": 3226, "\u663e": 3227, "\u6641": 3228, "\u6642": 3229, "\u6643": 3230, "\u6649": 3231, "\u664b": 3232, "\u664c": 3233, "\u664f": 3234, "\u6652": 3235, "\u6653": 3236, "\u6654": 3237, "\u6655": 3238, "\u6656": 3239, "\u6657": 3240, "\u665a": 3241, "\u665d": 3242, "\u665e": 3243, "\u665f": 3244, "\u6664": 3245, "\u6666": 3246, "\u6668": 3247, "\u6669": 3248, "\u666e": 3249, "\u666f": 3250, "\u6670": 3251, "\u6674": 3252, "\u6676": 3253, "\u6677": 3254, "\u667a": 3255, "\u667e": 3256, "\u6682": 3257, "\u6684": 3258, "\u6687": 3259, "\u6688": 3260, "\u6689": 3261, "\u668c": 3262, "\u6690": 3263, "\u6691": 3264, "\u6696": 3265, "\u6697": 3266, "\u669d": 3267, "\u66a2": 3268, "\u66a7": 3269, "\u66a8": 3270, "\u66ab": 3271, "\u66ae": 3272, "\u66b1": 3273, "\u66b4": 3274, "\u66b8": 3275, "\u66b9": 3276, "\u66c4": 3277, "\u66c6": 3278, "\u66c7": 3279, "\u66c9": 3280, "\u66d6": 3281, "\u66d9": 3282, "\u66dc": 3283, "\u66dd": 3284, "\u66e0": 3285, "\u66e6": 3286, "\u66ec": 3287, "\u66f0": 3288, "\u66f2": 3289, "\u66f3": 3290, "\u66f4": 3291, "\u66f8": 3292, "\u66f9": 3293, "\u66fc": 3294, "\u66fe": 3295, "\u66ff": 3296, "\u6700": 3297, "\u6703": 3298, "\u6708": 3299, "\u6709": 3300, "\u670b": 3301, "\u670d": 3302, "\u6710": 3303, "\u6714": 3304, "\u6715": 3305, "\u6717": 3306, "\u671b": 3307, "\u671d": 3308, "\u671f": 3309, "\u6726": 3310, "\u6727": 3311, "\u6728": 3312, "\u672a": 3313, "\u672b": 3314, "\u672c": 3315, "\u672d": 3316, "\u672e": 3317, "\u672f": 3318, "\u6731": 3319, "\u6734": 3320, "\u6735": 3321, "\u673a": 3322, "\u673d": 3323, "\u6740": 3324, "\u6742": 3325, "\u6743": 3326, "\u6746": 3327, "\u6748": 3328, "\u6749": 3329, "\u674e": 3330, "\u674f": 3331, "\u6750": 3332, "\u6751": 3333, "\u6753": 3334, "\u6756": 3335, "\u675c": 3336, "\u675e": 3337, "\u675f": 3338, "\u6760": 3339, "\u6761": 3340, "\u6765": 3341, "\u6768": 3342, "\u676d": 3343, "\u676f": 3344, "\u6770": 3345, "\u6771": 3346, "\u6773": 3347, "\u6775": 3348, "\u6777": 3349, "\u677c": 3350, "\u677e": 3351, "\u677f": 3352, "\u6781": 3353, "\u6784": 3354, "\u6787": 3355, "\u6789": 3356, "\u678b": 3357, "\u6790": 3358, "\u6795": 3359, "\u6797": 3360, "\u679a": 3361, "\u679c": 3362, "\u679d": 3363, "\u67a2": 3364, "\u67a3": 3365, "\u67aa": 3366, "\u67ab": 3367, "\u67ad": 3368, "\u67af": 3369, "\u67b0": 3370, "\u67b1": 3371, "\u67b3": 3372, "\u67b6": 3373, "\u67b7": 3374, "\u67b8": 3375, "\u67c4": 3376, "\u67cf": 3377, "\u67d0": 3378, "\u67d1": 3379, "\u67d2": 3380, "\u67d3": 3381, "\u67d4": 3382, "\u67d8": 3383, "\u67da": 3384, "\u67dc": 3385, "\u67de": 3386, "\u67e0": 3387, "\u67e2": 3388, "\u67e5": 3389, "\u67e9": 3390, "\u67ec": 3391, "\u67ef": 3392, "\u67f1": 3393, "\u67f3": 3394, "\u67f4": 3395, "\u67f5": 3396, "\u67fb": 3397, "\u67ff": 3398, "\u6800": 3399, "\u6803": 3400, "\u6804": 3401, "\u6805": 3402, "\u6807": 3403, "\u6808": 3404, "\u6809": 3405, "\u680b": 3406, "\u680e": 3407, "\u680f": 3408, "\u6811": 3409, "\u6813": 3410, "\u6816": 3411, "\u6817": 3412, "\u6821": 3413, "\u6829": 3414, "\u682a": 3415, "\u6837": 3416, "\u6838": 3417, "\u6839": 3418, "\u683c": 3419, "\u683d": 3420, "\u683e": 3421, "\u6840": 3422, "\u6841": 3423, "\u6842": 3424, "\u6843": 3425, "\u6845": 3426, "\u6846": 3427, "\u6848": 3428, "\u6849": 3429, "\u684c": 3430, "\u684e": 3431, "\u6850": 3432, "\u6851": 3433, "\u6853": 3434, "\u6854": 3435, "\u685c": 3436, "\u6860": 3437, "\u6861": 3438, "\u6862": 3439, "\u6863": 3440, "\u6865": 3441, "\u6866": 3442, "\u6867": 3443, "\u6868": 3444, "\u6869": 3445, "\u6876": 3446, "\u687f": 3447, "\u6881": 3448, "\u6885": 3449, "\u6886": 3450, "\u688f": 3451, "\u6893": 3452, "\u6897": 3453, "\u689d": 3454, "\u689f": 3455, "\u68a2": 3456, "\u68a6": 3457, "\u68a7": 3458, "\u68a8": 3459, "\u68ad": 3460, "\u68af": 3461, "\u68b0": 3462, "\u68b3": 3463, "\u68b5": 3464, "\u68b6": 3465, "\u68c0": 3466, "\u68c2": 3467, "\u68c4": 3468, "\u68c9": 3469, "\u68cb": 3470, "\u68cd": 3471, "\u68d2": 3472, "\u68d5": 3473, "\u68d7": 3474, "\u68d8": 3475, "\u68da": 3476, "\u68df": 3477, "\u68e0": 3478, "\u68e3": 3479, "\u68e7": 3480, "\u68ee": 3481, "\u68f1": 3482, "\u68f2": 3483, "\u68f5": 3484, "\u68f9": 3485, "\u68fa": 3486, "\u6901": 3487, "\u6905": 3488, "\u690b": 3489, "\u690d": 3490, "\u690e": 3491, "\u6912": 3492, "\u691c": 3493, "\u692a": 3494, "\u692d": 3495, "\u6930": 3496, "\u6939": 3497, "\u693d": 3498, "\u693f": 3499, "\u6942": 3500, "\u694a": 3501, "\u6953": 3502, "\u6954": 3503, "\u695a": 3504, "\u695d": 3505, "\u695e": 3506, "\u6960": 3507, "\u6963": 3508, "\u6968": 3509, "\u696b": 3510, "\u696d": 3511, "\u696e": 3512, "\u6975": 3513, "\u6977": 3514, "\u6978": 3515, "\u6979": 3516, "\u697c": 3517, "\u697d": 3518, "\u6982": 3519, "\u6984": 3520, "\u6986": 3521, "\u6988": 3522, "\u6989": 3523, "\u6994": 3524, "\u6995": 3525, "\u6996": 3526, "\u699b": 3527, "\u699c": 3528, "\u69a8": 3529, "\u69ab": 3530, "\u69ad": 3531, "\u69ae": 3532, "\u69b1": 3533, "\u69b4": 3534, "\u69b7": 3535, "\u69bb": 3536, "\u69c1": 3537, "\u69c3": 3538, "\u69cb": 3539, "\u69cc": 3540, "\u69cd": 3541, "\u69ce": 3542, "\u69d0": 3543, "\u69d3": 3544, "\u69d8": 3545, "\u69db": 3546, "\u69df": 3547, "\u69e4": 3548, "\u69ed": 3549, "\u69f2": 3550, "\u69f3": 3551, "\u69fb": 3552, "\u69fd": 3553, "\u69ff": 3554, "\u6a01": 3555, "\u6a02": 3556, "\u6a0a": 3557, "\u6a11": 3558, "\u6a13": 3559, "\u6a19": 3560, "\u6a1e": 3561, "\u6a1f": 3562, "\u6a21": 3563, "\u6a23": 3564, "\u6a29": 3565, "\u6a2a": 3566, "\u6a2b": 3567, "\u6a2f": 3568, "\u6a31": 3569, "\u6a35": 3570, "\u6a38": 3571, "\u6a39": 3572, "\u6a3a": 3573, "\u6a3d": 3574, "\u6a3e": 3575, "\u6a44": 3576, "\u6a47": 3577, "\u6a4b": 3578, "\u6a50": 3579, "\u6a58": 3580, "\u6a59": 3581, "\u6a5f": 3582, "\u6a61": 3583, "\u6a62": 3584, "\u6a6b": 3585, "\u6a71": 3586, "\u6a79": 3587, "\u6a7c": 3588, "\u6a80": 3589, "\u6a84": 3590, "\u6a8e": 3591, "\u6a90": 3592, "\u6a94": 3593, "\u6a97": 3594, "\u6a9c": 3595, "\u6aa2": 3596, "\u6aac": 3597, "\u6aaf": 3598, "\u6ab3": 3599, "\u6ab8": 3600, "\u6abb": 3601, "\u6ac3": 3602, "\u6ada": 3603, "\u6adb": 3604, "\u6ae5": 3605, "\u6af8": 3606, "\u6afb": 3607, "\u6b04": 3608, "\u6b0a": 3609, "\u6b12": 3610, "\u6b16": 3611, "\u6b20": 3612, "\u6b21": 3613, "\u6b22": 3614, "\u6b23": 3615, "\u6b27": 3616, "\u6b32": 3617, "\u6b38": 3618, "\u6b3a": 3619, "\u6b3d": 3620, "\u6b3e": 3621, "\u6b46": 3622, "\u6b47": 3623, "\u6b49": 3624, "\u6b4c": 3625, "\u6b4e": 3626, "\u6b50": 3627, "\u6b53": 3628, "\u6b59": 3629, "\u6b5b": 3630, "\u6b61": 3631, "\u6b62": 3632, "\u6b63": 3633, "\u6b64": 3634, "\u6b65": 3635, "\u6b66": 3636, "\u6b67": 3637, "\u6b69": 3638, "\u6b6a": 3639, "\u6b6f": 3640, "\u6b72": 3641, "\u6b73": 3642, "\u6b74": 3643, "\u6b77": 3644, "\u6b78": 3645, "\u6b79": 3646, "\u6b7b": 3647, "\u6b7c": 3648, "\u6b81": 3649, "\u6b83": 3650, "\u6b86": 3651, "\u6b87": 3652, "\u6b89": 3653, "\u6b8a": 3654, "\u6b8b": 3655, "\u6b92": 3656, "\u6b93": 3657, "\u6b96": 3658, "\u6b98": 3659, "\u6b9e": 3660, "\u6ba1": 3661, "\u6ba4": 3662, "\u6bad": 3663, "\u6baf": 3664, "\u6bb2": 3665, "\u6bb4": 3666, "\u6bb5": 3667, "\u6bb7": 3668, "\u6bba": 3669, "\u6bbc": 3670, "\u6bbf": 3671, "\u6bc0": 3672, "\u6bc1": 3673, "\u6bc2": 3674, "\u6bc5": 3675, "\u6bc6": 3676, "\u6bcb": 3677, "\u6bcd": 3678, "\u6bce": 3679, "\u6bcf": 3680, "\u6bd2": 3681, "\u6bd3": 3682, "\u6bd4": 3683, "\u6bd5": 3684, "\u6bd7": 3685, "\u6bd8": 3686, "\u6bd9": 3687, "\u6bdb": 3688, "\u6be1": 3689, "\u6beb": 3690, "\u6bef": 3691, "\u6bfd": 3692, "\u6c08": 3693, "\u6c0f": 3694, "\u6c10": 3695, "\u6c11": 3696, "\u6c13": 3697, "\u6c14": 3698, "\u6c16": 3699, "\u6c17": 3700, "\u6c19": 3701, "\u6c1b": 3702, "\u6c1f": 3703, "\u6c21": 3704, "\u6c22": 3705, "\u6c23": 3706, "\u6c24": 3707, "\u6c26": 3708, "\u6c27": 3709, "\u6c28": 3710, "\u6c2a": 3711, "\u6c2b": 3712, "\u6c2e": 3713, "\u6c2f": 3714, "\u6c30": 3715, "\u6c32": 3716, "\u6c34": 3717, "\u6c37": 3718, "\u6c38": 3719, "\u6c39": 3720, "\u6c3e": 3721, "\u6c40": 3722, "\u6c41": 3723, "\u6c42": 3724, "\u6c46": 3725, "\u6c47": 3726, "\u6c49": 3727, "\u6c4e": 3728, "\u6c50": 3729, "\u6c55": 3730, "\u6c57": 3731, "\u6c59": 3732, "\u6c5b": 3733, "\u6c5d": 3734, "\u6c5e": 3735, "\u6c5f": 3736, "\u6c60": 3737, "\u6c61": 3738, "\u6c64": 3739, "\u6c68": 3740, "\u6c69": 3741, "\u6c6a": 3742, "\u6c70": 3743, "\u6c72": 3744, "\u6c74": 3745, "\u6c76": 3746, "\u6c79": 3747, "\u6c7a": 3748, "\u6c7d": 3749, "\u6c7e": 3750, "\u6c81": 3751, "\u6c82": 3752, "\u6c83": 3753, "\u6c85": 3754, "\u6c88": 3755, "\u6c89": 3756, "\u6c8c": 3757, "\u6c8f": 3758, "\u6c90": 3759, "\u6c92": 3760, "\u6c93": 3761, "\u6c96": 3762, "\u6c99": 3763, "\u6c9b": 3764, "\u6c9f": 3765, "\u6ca1": 3766, "\u6ca2": 3767, "\u6ca3": 3768, "\u6ca5": 3769, "\u6ca6": 3770, "\u6ca7": 3771, "\u6caa": 3772, "\u6cab": 3773, "\u6cad": 3774, "\u6cae": 3775, "\u6cb1": 3776, "\u6cb3": 3777, "\u6cb8": 3778, "\u6cb9": 3779, "\u6cbb": 3780, "\u6cbc": 3781, "\u6cbd": 3782, "\u6cbe": 3783, "\u6cbf": 3784, "\u6cc1": 3785, "\u6cc4": 3786, "\u6cc9": 3787, "\u6cca": 3788, "\u6ccc": 3789, "\u6cd3": 3790, "\u6cd5": 3791, "\u6cd7": 3792, "\u6cdb": 3793, "\u6cde": 3794, "\u6ce0": 3795, "\u6ce1": 3796, "\u6ce2": 3797, "\u6ce3": 3798, "\u6ce5": 3799, "\u6ce8": 3800, "\u6cea": 3801, "\u6ceb": 3802, "\u6cee": 3803, "\u6cef": 3804, "\u6cf0": 3805, "\u6cf1": 3806, "\u6cf3": 3807, "\u6cf5": 3808, "\u6cf7": 3809, "\u6cf8": 3810, "\u6cfb": 3811, "\u6cfc": 3812, "\u6cfd": 3813, "\u6cfe": 3814, "\u6d01": 3815, "\u6d04": 3816, "\u6d0b": 3817, "\u6d12": 3818, "\u6d17": 3819, "\u6d19": 3820, "\u6d1b": 3821, "\u6d1e": 3822, "\u6d25": 3823, "\u6d29": 3824, "\u6d2a": 3825, "\u6d2e": 3826, "\u6d31": 3827, "\u6d32": 3828, "\u6d35": 3829, "\u6d36": 3830, "\u6d38": 3831, "\u6d39": 3832, "\u6d3b": 3833, "\u6d3c": 3834, "\u6d3d": 3835, "\u6d3e": 3836, "\u6d41": 3837, "\u6d43": 3838, "\u6d44": 3839, "\u6d45": 3840, "\u6d46": 3841, "\u6d47": 3842, "\u6d4a": 3843, "\u6d4b": 3844, "\u6d4e": 3845, "\u6d4f": 3846, "\u6d51": 3847, "\u6d52": 3848, "\u6d53": 3849, "\u6d54": 3850, "\u6d59": 3851, "\u6d5a": 3852, "\u6d5c": 3853, "\u6d63": 3854, "\u6d66": 3855, "\u6d69": 3856, "\u6d6a": 3857, "\u6d6c": 3858, "\u6d6e": 3859, "\u6d6f": 3860, "\u6d74": 3861, "\u6d77": 3862, "\u6d78": 3863, "\u6d82": 3864, "\u6d85": 3865, "\u6d87": 3866, "\u6d88": 3867, "\u6d89": 3868, "\u6d8c": 3869, "\u6d8e": 3870, "\u6d93": 3871, "\u6d94": 3872, "\u6d95": 3873, "\u6d99": 3874, "\u6d9b": 3875, "\u6d9d": 3876, "\u6d9e": 3877, "\u6d9f": 3878, "\u6da0": 3879, "\u6da1": 3880, "\u6da3": 3881, "\u6da4": 3882, "\u6da6": 3883, "\u6da7": 3884, "\u6da8": 3885, "\u6da9": 3886, "\u6daa": 3887, "\u6dae": 3888, "\u6daf": 3889, "\u6db2": 3890, "\u6db5": 3891, "\u6db8": 3892, "\u6dbc": 3893, "\u6dbf": 3894, "\u6dc0": 3895, "\u6dc4": 3896, "\u6dc5": 3897, "\u6dc6": 3898, "\u6dc7": 3899, "\u6dcb": 3900, "\u6dcc": 3901, "\u6dd1": 3902, "\u6dd2": 3903, "\u6dd6": 3904, "\u6dd8": 3905, "\u6dd9": 3906, "\u6dda": 3907, "\u6dde": 3908, "\u6de1": 3909, "\u6de4": 3910, "\u6de6": 3911, "\u6de8": 3912, "\u6de9": 3913, "\u6dea": 3914, "\u6deb": 3915, "\u6dec": 3916, "\u6dee": 3917, "\u6df1": 3918, "\u6df3": 3919, "\u6df5": 3920, "\u6df7": 3921, "\u6df9": 3922, "\u6dfa": 3923, "\u6dfb": 3924, "\u6dfc": 3925, "\u6e05": 3926, "\u6e08": 3927, "\u6e09": 3928, "\u6e0a": 3929, "\u6e0b": 3930, "\u6e0d": 3931, "\u6e0e": 3932, "\u6e10": 3933, "\u6e14": 3934, "\u6e17": 3935, "\u6e19": 3936, "\u6e1a": 3937, "\u6e1b": 3938, "\u6e1d": 3939, "\u6e20": 3940, "\u6e21": 3941, "\u6e23": 3942, "\u6e24": 3943, "\u6e25": 3944, "\u6e26": 3945, "\u6e29": 3946, "\u6e2c": 3947, "\u6e2d": 3948, "\u6e2f": 3949, "\u6e32": 3950, "\u6e34": 3951, "\u6e38": 3952, "\u6e3a": 3953, "\u6e3e": 3954, "\u6e43": 3955, "\u6e44": 3956, "\u6e4a": 3957, "\u6e4d": 3958, "\u6e56": 3959, "\u6e58": 3960, "\u6e5b": 3961, "\u6e5f": 3962, "\u6e67": 3963, "\u6e6b": 3964, "\u6e6e": 3965, "\u6e6f": 3966, "\u6e73": 3967, "\u6e7e": 3968, "\u6e7f": 3969, "\u6e80": 3970, "\u6e83": 3971, "\u6e85": 3972, "\u6e89": 3973, "\u6e8f": 3974, "\u6e90": 3975, "\u6e96": 3976, "\u6e9c": 3977, "\u6e9d": 3978, "\u6e9f": 3979, "\u6ea2": 3980, "\u6ea5": 3981, "\u6ea7": 3982, "\u6eaa": 3983, "\u6eab": 3984, "\u6eaf": 3985, "\u6eb1": 3986, "\u6eb4": 3987, "\u6eb6": 3988, "\u6eba": 3989, "\u6ebc": 3990, "\u6ec1": 3991, "\u6ec2": 3992, "\u6ec4": 3993, "\u6ec5": 3994, "\u6ec7": 3995, "\u6ecb": 3996, "\u6ecc": 3997, "\u6ed1": 3998, "\u6ed3": 3999, "\u6ed4": 4000, "\u6ed5": 4001, "\u6ed9": 4002, "\u6eda": 4003, "\u6edd": 4004, "\u6ede": 4005, "\u6edf": 4006, "\u6ee1": 4007, "\u6ee2": 4008, "\u6ee4": 4009, "\u6ee5": 4010, "\u6ee6": 4011, "\u6ee8": 4012, "\u6ee9": 4013, "\u6eec": 4014, "\u6eef": 4015, "\u6ef2": 4016, "\u6ef4": 4017, "\u6ef7": 4018, "\u6ef8": 4019, "\u6efe": 4020, "\u6eff": 4021, "\u6f01": 4022, "\u6f02": 4023, "\u6f06": 4024, "\u6f09": 4025, "\u6f0f": 4026, "\u6f13": 4027, "\u6f14": 4028, "\u6f15": 4029, "\u6f20": 4030, "\u6f22": 4031, "\u6f23": 4032, "\u6f29": 4033, "\u6f2a": 4034, "\u6f2b": 4035, "\u6f2c": 4036, "\u6f2f": 4037, "\u6f31": 4038, "\u6f32": 4039, "\u6f33": 4040, "\u6f38": 4041, "\u6f3e": 4042, "\u6f3f": 4043, "\u6f46": 4044, "\u6f47": 4045, "\u6f4b": 4046, "\u6f4d": 4047, "\u6f51": 4048, "\u6f54": 4049, "\u6f58": 4050, "\u6f5b": 4051, "\u6f5c": 4052, "\u6f5e": 4053, "\u6f5f": 4054, "\u6f62": 4055, "\u6f64": 4056, "\u6f66": 4057, "\u6f67": 4058, "\u6f6d": 4059, "\u6f6e": 4060, "\u6f70": 4061, "\u6f74": 4062, "\u6f78": 4063, "\u6f7a": 4064, "\u6f7c": 4065, "\u6f80": 4066, "\u6f84": 4067, "\u6f86": 4068, "\u6f88": 4069, "\u6f8d": 4070, "\u6f8e": 4071, "\u6f97": 4072, "\u6f9c": 4073, "\u6fa1": 4074, "\u6fa4": 4075, "\u6fa7": 4076, "\u6fb1": 4077, "\u6fb3": 4078, "\u6fb9": 4079, "\u6fc0": 4080, "\u6fc1": 4081, "\u6fc2": 4082, "\u6fc3": 4083, "\u6fd1": 4084, "\u6fd2": 4085, "\u6fd5": 4086, "\u6fd8": 4087, "\u6fdb": 4088, "\u6fdf": 4089, "\u6fe0": 4090, "\u6fe1": 4091, "\u6fe4": 4092, "\u6feb": 4093, "\u6fec": 4094, "\u6fee": 4095, "\u6fef": 4096, "\u6ff1": 4097, "\u6ffa": 4098, "\u6ffe": 4099, "\u7005": 4100, "\u7006": 4101, "\u7009": 4102, "\u700b": 4103, "\u700f": 4104, "\u7011": 4105, "\u7015": 4106, "\u7018": 4107, "\u701a": 4108, "\u701b": 4109, "\u701d": 4110, "\u701e": 4111, "\u701f": 4112, "\u7027": 4113, "\u7028": 4114, "\u702c": 4115, "\u7030": 4116, "\u703e": 4117, "\u704c": 4118, "\u704f": 4119, "\u7051": 4120, "\u7058": 4121, "\u705d": 4122, "\u705e": 4123, "\u7063": 4124, "\u706b": 4125, "\u706c": 4126, "\u706d": 4127, "\u706f": 4128, "\u7070": 4129, "\u7075": 4130, "\u7076": 4131, "\u7078": 4132, "\u707c": 4133, "\u707d": 4134, "\u707e": 4135, "\u707f": 4136, "\u7080": 4137, "\u7081": 4138, "\u7085": 4139, "\u7089": 4140, "\u708a": 4141, "\u708e": 4142, "\u7092": 4143, "\u7094": 4144, "\u7095": 4145, "\u7096": 4146, "\u7099": 4147, "\u709c": 4148, "\u70ab": 4149, "\u70ac": 4150, "\u70ad": 4151, "\u70ae": 4152, "\u70af": 4153, "\u70b3": 4154, "\u70b7": 4155, "\u70b8": 4156, "\u70b9": 4157, "\u70ba": 4158, "\u70bc": 4159, "\u70bd": 4160, "\u70c1": 4161, "\u70c2": 4162, "\u70c3": 4163, "\u70c8": 4164, "\u70ca": 4165, "\u70cf": 4166, "\u70d8": 4167, "\u70d9": 4168, "\u70db": 4169, "\u70df": 4170, "\u70e4": 4171, "\u70e6": 4172, "\u70e7": 4173, "\u70e8": 4174, "\u70e9": 4175, "\u70eb": 4176, "\u70ec": 4177, "\u70ed": 4178, "\u70ef": 4179, "\u70f7": 4180, "\u70f9": 4181, "\u70fd": 4182, "\u7109": 4183, "\u710a": 4184, "\u7115": 4185, "\u7116": 4186, "\u7117": 4187, "\u7118": 4188, "\u7119": 4189, "\u711a": 4190, "\u711c": 4191, "\u7121": 4192, "\u7126": 4193, "\u712f": 4194, "\u7130": 4195, "\u7131": 4196, "\u7136": 4197, "\u713c": 4198, "\u7145": 4199, "\u7149": 4200, "\u714a": 4201, "\u714c": 4202, "\u714e": 4203, "\u7152": 4204, "\u7156": 4205, "\u7159": 4206, "\u715c": 4207, "\u715e": 4208, "\u7164": 4209, "\u7165": 4210, "\u7166": 4211, "\u7167": 4212, "\u7168": 4213, "\u7169": 4214, "\u716e": 4215, "\u7172": 4216, "\u7178": 4217, "\u717d": 4218, "\u7184": 4219, "\u718a": 4220, "\u718f": 4221, "\u7192": 4222, "\u7194": 4223, "\u7199": 4224, "\u719f": 4225, "\u71a0": 4226, "\u71a8": 4227, "\u71ac": 4228, "\u71b1": 4229, "\u71b5": 4230, "\u71b9": 4231, "\u71be": 4232, "\u71c1": 4233, "\u71c3": 4234, "\u71c4": 4235, "\u71c8": 4236, "\u71c9": 4237, "\u71ca": 4238, "\u71ce": 4239, "\u71d2": 4240, "\u71d4": 4241, "\u71d5": 4242, "\u71d9": 4243, "\u71dc": 4244, "\u71df": 4245, "\u71e5": 4246, "\u71e6": 4247, "\u71e7": 4248, "\u71ed": 4249, "\u71ee": 4250, "\u71f4": 4251, "\u71fb": 4252, "\u71fc": 4253, "\u71ff": 4254, "\u7206": 4255, "\u720d": 4256, "\u7210": 4257, "\u721b": 4258, "\u722a": 4259, "\u722c": 4260, "\u722d": 4261, "\u7230": 4262, "\u7231": 4263, "\u7232": 4264, "\u7235": 4265, "\u7236": 4266, "\u7237": 4267, "\u7238": 4268, "\u7239": 4269, "\u723a": 4270, "\u723b": 4271, "\u723d": 4272, "\u723e": 4273, "\u7246": 4274, "\u7247": 4275, "\u7248": 4276, "\u724c": 4277, "\u724d": 4278, "\u7252": 4279, "\u7259": 4280, "\u725b": 4281, "\u725d": 4282, "\u725f": 4283, "\u7260": 4284, "\u7261": 4285, "\u7262": 4286, "\u7266": 4287, "\u7267": 4288, "\u7269": 4289, "\u726f": 4290, "\u7272": 4291, "\u7274": 4292, "\u7275": 4293, "\u7279": 4294, "\u727a": 4295, "\u727d": 4296, "\u7280": 4297, "\u7281": 4298, "\u7284": 4299, "\u728a": 4300, "\u728d": 4301, "\u7292": 4302, "\u72a2": 4303, "\u72a7": 4304, "\u72ac": 4305, "\u72af": 4306, "\u72b6": 4307, "\u72b7": 4308, "\u72b8": 4309, "\u72b9": 4310, "\u72c0": 4311, "\u72c2": 4312, "\u72c4": 4313, "\u72c8": 4314, "\u72ce": 4315, "\u72d0": 4316, "\u72d2": 4317, "\u72d7": 4318, "\u72d9": 4319, "\u72de": 4320, "\u72e0": 4321, "\u72e1": 4322, "\u72e9": 4323, "\u72ec": 4324, "\u72ed": 4325, "\u72ee": 4326, "\u72f0": 4327, "\u72f1": 4328, "\u72f8": 4329, "\u72f9": 4330, "\u72fc": 4331, "\u72fd": 4332, "\u730e": 4333, "\u7315": 4334, "\u7316": 4335, "\u7317": 4336, "\u7319": 4337, "\u731b": 4338, "\u731c": 4339, "\u731d": 4340, "\u7325": 4341, "\u7329": 4342, "\u732a": 4343, "\u732b": 4344, "\u732c": 4345, "\u732e": 4346, "\u7334": 4347, "\u7336": 4348, "\u7337": 4349, "\u733e": 4350, "\u733f": 4351, "\u7344": 4352, "\u7345": 4353, "\u734e": 4354, "\u7350": 4355, "\u7352": 4356, "\u7357": 4357, "\u7360": 4358, "\u7363": 4359, "\u7368": 4360, "\u736d": 4361, "\u7370": 4362, "\u7372": 4363, "\u7375": 4364, "\u7377": 4365, "\u7378": 4366, "\u737a": 4367, "\u737b": 4368, "\u737c": 4369, "\u737e": 4370, "\u7384": 4371, "\u7387": 4372, "\u7389": 4373, "\u738b": 4374, "\u7391": 4375, "\u7396": 4376, "\u739b": 4377, "\u739f": 4378, "\u73a0": 4379, "\u73a5": 4380, "\u73a9": 4381, "\u73ab": 4382, "\u73ae": 4383, "\u73af": 4384, "\u73b0": 4385, "\u73b2": 4386, "\u73b3": 4387, "\u73b7": 4388, "\u73ba": 4389, "\u73bb": 4390, "\u73c0": 4391, "\u73c2": 4392, "\u73c5": 4393, "\u73c8": 4394, "\u73c9": 4395, "\u73ca": 4396, "\u73cd": 4397, "\u73cf": 4398, "\u73d0": 4399, "\u73d1": 4400, "\u73d9": 4401, "\u73de": 4402, "\u73e0": 4403, "\u73e3": 4404, "\u73e5": 4405, "\u73e9": 4406, "\u73ea": 4407, "\u73ed": 4408, "\u73ee": 4409, "\u73f2": 4410, "\u73fa": 4411, "\u73fe": 4412, "\u7403": 4413, "\u7405": 4414, "\u7406": 4415, "\u7407": 4416, "\u7409": 4417, "\u740a": 4418, "\u740d": 4419, "\u740f": 4420, "\u7410": 4421, "\u741b": 4422, "\u7422": 4423, "\u7425": 4424, "\u7426": 4425, "\u7428": 4426, "\u742a": 4427, "\u742c": 4428, "\u742e": 4429, "\u7430": 4430, "\u7432": 4431, "\u7433": 4432, "\u7434": 4433, "\u7435": 4434, "\u7436": 4435, "\u743a": 4436, "\u743c": 4437, "\u7440": 4438, "\u7441": 4439, "\u7444": 4440, "\u744b": 4441, "\u7455": 4442, "\u7457": 4443, "\u7459": 4444, "\u745a": 4445, "\u745b": 4446, "\u745c": 4447, "\u745e": 4448, "\u745f": 4449, "\u7460": 4450, "\u7463": 4451, "\u7464": 4452, "\u7469": 4453, "\u746a": 4454, "\u746f": 4455, "\u7470": 4456, "\u7476": 4457, "\u747e": 4458, "\u7480": 4459, "\u7481": 4460, "\u7483": 4461, "\u7487": 4462, "\u7489": 4463, "\u748b": 4464, "\u748e": 4465, "\u7490": 4466, "\u749c": 4467, "\u749e": 4468, "\u749f": 4469, "\u74a7": 4470, "\u74a8": 4471, "\u74b0": 4472, "\u74bd": 4473, "\u74bf": 4474, "\u74ca": 4475, "\u74cf": 4476, "\u74d2": 4477, "\u74dc": 4478, "\u74e2": 4479, "\u74e3": 4480, "\u74e4": 4481, "\u74e6": 4482, "\u74ee": 4483, "\u74ef": 4484, "\u74f4": 4485, "\u74f6": 4486, "\u74f7": 4487, "\u7504": 4488, "\u750c": 4489, "\u7515": 4490, "\u7518": 4491, "\u7519": 4492, "\u751a": 4493, "\u751c": 4494, "\u751f": 4495, "\u7522": 4496, "\u7523": 4497, "\u7525": 4498, "\u7526": 4499, "\u7528": 4500, "\u7529": 4501, "\u752b": 4502, "\u752c": 4503, "\u752d": 4504, "\u752f": 4505, "\u7530": 4506, "\u7531": 4507, "\u7532": 4508, "\u7533": 4509, "\u7535": 4510, "\u7537": 4511, "\u7538": 4512, "\u753a": 4513, "\u753b": 4514, "\u753e": 4515, "\u7540": 4516, "\u7545": 4517, "\u754c": 4518, "\u754f": 4519, "\u7551": 4520, "\u7554": 4521, "\u7559": 4522, "\u755c": 4523, "\u755d": 4524, "\u7562": 4525, "\u7565": 4526, "\u7566": 4527, "\u756a": 4528, "\u756b": 4529, "\u7570": 4530, "\u7572": 4531, "\u7573": 4532, "\u7574": 4533, "\u7576": 4534, "\u7578": 4535, "\u7579": 4536, "\u757f": 4537, "\u7586": 4538, "\u7587": 4539, "\u758a": 4540, "\u758f": 4541, "\u7591": 4542, "\u7594": 4543, "\u7596": 4544, "\u7597": 4545, "\u7599": 4546, "\u759a": 4547, "\u759d": 4548, "\u759f": 4549, "\u75a1": 4550, "\u75a3": 4551, "\u75a4": 4552, "\u75a5": 4553, "\u75ab": 4554, "\u75ae": 4555, "\u75af": 4556, "\u75b1": 4557, "\u75b2": 4558, "\u75b3": 4559, "\u75b5": 4560, "\u75b8": 4561, "\u75b9": 4562, "\u75bc": 4563, "\u75bd": 4564, "\u75be": 4565, "\u75c2": 4566, "\u75c5": 4567, "\u75c7": 4568, "\u75c8": 4569, "\u75c9": 4570, "\u75ca": 4571, "\u75cd": 4572, "\u75d2": 4573, "\u75d4": 4574, "\u75d5": 4575, "\u75d8": 4576, "\u75d9": 4577, "\u75db": 4578, "\u75de": 4579, "\u75e0": 4580, "\u75e2": 4581, "\u75e3": 4582, "\u75e4": 4583, "\u75e7": 4584, "\u75e8": 4585, "\u75ea": 4586, "\u75eb": 4587, "\u75f0": 4588, "\u75f1": 4589, "\u75f4": 4590, "\u75f9": 4591, "\u75fa": 4592, "\u75fc": 4593, "\u75ff": 4594, "\u7600": 4595, "\u7601": 4596, "\u760b": 4597, "\u760d": 4598, "\u7613": 4599, "\u7618": 4600, "\u7619": 4601, "\u761f": 4602, "\u7620": 4603, "\u7621": 4604, "\u7622": 4605, "\u7624": 4606, "\u7626": 4607, "\u7627": 4608, "\u7629": 4609, "\u762a": 4610, "\u762b": 4611, "\u7634": 4612, "\u7638": 4613, "\u763e": 4614, "\u7642": 4615, "\u7647": 4616, "\u764c": 4617, "\u7652": 4618, "\u7656": 4619, "\u765c": 4620, "\u765e": 4621, "\u7661": 4622, "\u7662": 4623, "\u7663": 4624, "\u7665": 4625, "\u766b": 4626, "\u766c": 4627, "\u766e": 4628, "\u7671": 4629, "\u7672": 4630, "\u7678": 4631, "\u767a": 4632, "\u767b": 4633, "\u767c": 4634, "\u767d": 4635, "\u767e": 4636, "\u7682": 4637, "\u7684": 4638, "\u7686": 4639, "\u7687": 4640, "\u7688": 4641, "\u768b": 4642, "\u768e": 4643, "\u7691": 4644, "\u7693": 4645, "\u7696": 4646, "\u7699": 4647, "\u769a": 4648, "\u76ae": 4649, "\u76b0": 4650, "\u76b1": 4651, "\u76b4": 4652, "\u76ba": 4653, "\u76bf": 4654, "\u76c2": 4655, "\u76c3": 4656, "\u76c5": 4657, "\u76c6": 4658, "\u76c8": 4659, "\u76ca": 4660, "\u76ce": 4661, "\u76cf": 4662, "\u76d0": 4663, "\u76d1": 4664, "\u76d2": 4665, "\u76d4": 4666, "\u76d6": 4667, "\u76d7": 4668, "\u76d8": 4669, "\u76db": 4670, "\u76dc": 4671, "\u76de": 4672, "\u76df": 4673, "\u76e1": 4674, "\u76e3": 4675, "\u76e4": 4676, "\u76e5": 4677, "\u76e7": 4678, "\u76ea": 4679, "\u76ee": 4680, "\u76ef": 4681, "\u76f1": 4682, "\u76f2": 4683, "\u76f4": 4684, "\u76f8": 4685, "\u76f9": 4686, "\u76fc": 4687, "\u76fe": 4688, "\u7701": 4689, "\u7708": 4690, "\u7709": 4691, "\u770b": 4692, "\u770c": 4693, "\u7719": 4694, "\u771e": 4695, "\u771f": 4696, "\u7720": 4697, "\u7726": 4698, "\u7728": 4699, "\u7729": 4700, "\u772f": 4701, "\u7736": 4702, "\u7737": 4703, "\u7738": 4704, "\u773a": 4705, "\u773c": 4706, "\u773e": 4707, "\u7740": 4708, "\u7741": 4709, "\u7747": 4710, "\u774f": 4711, "\u7750": 4712, "\u7751": 4713, "\u775b": 4714, "\u775c": 4715, "\u775e": 4716, "\u7761": 4717, "\u7762": 4718, "\u7763": 4719, "\u7765": 4720, "\u7766": 4721, "\u7768": 4722, "\u776a": 4723, "\u776b": 4724, "\u776c": 4725, "\u7779": 4726, "\u777d": 4727, "\u777e": 4728, "\u777f": 4729, "\u7784": 4730, "\u7785": 4731, "\u7787": 4732, "\u778b": 4733, "\u778c": 4734, "\u778e": 4735, "\u7791": 4736, "\u7792": 4737, "\u7793": 4738, "\u779e": 4739, "\u779f": 4740, "\u77a0": 4741, "\u77a5": 4742, "\u77a7": 4743, "\u77a9": 4744, "\u77aa": 4745, "\u77ac": 4746, "\u77ad": 4747, "\u77b0": 4748, "\u77b3": 4749, "\u77bb": 4750, "\u77bc": 4751, "\u77bf": 4752, "\u77c7": 4753, "\u77cd": 4754, "\u77d7": 4755, "\u77da": 4756, "\u77db": 4757, "\u77dc": 4758, "\u77e2": 4759, "\u77e3": 4760, "\u77e5": 4761, "\u77e9": 4762, "\u77eb": 4763, "\u77ed": 4764, "\u77ee": 4765, "\u77ef": 4766, "\u77f3": 4767, "\u77f6": 4768, "\u77fd": 4769, "\u77fe": 4770, "\u77ff": 4771, "\u7801": 4772, "\u7802": 4773, "\u780c": 4774, "\u780d": 4775, "\u7812": 4776, "\u7814": 4777, "\u7816": 4778, "\u7817": 4779, "\u781a": 4780, "\u781d": 4781, "\u7823": 4782, "\u7825": 4783, "\u7827": 4784, "\u782d": 4785, "\u7830": 4786, "\u7832": 4787, "\u7834": 4788, "\u7837": 4789, "\u7838": 4790, "\u783a": 4791, "\u783c": 4792, "\u783e": 4793, "\u7840": 4794, "\u7845": 4795, "\u7850": 4796, "\u7852": 4797, "\u7855": 4798, "\u785d": 4799, "\u786b": 4800, "\u786c": 4801, "\u786e": 4802, "\u786f": 4803, "\u787c": 4804, "\u7881": 4805, "\u7887": 4806, "\u7889": 4807, "\u788c": 4808, "\u788d": 4809, "\u788e": 4810, "\u7891": 4811, "\u7893": 4812, "\u7897": 4813, "\u7898": 4814, "\u789a": 4815, "\u789b": 4816, "\u789f": 4817, "\u78a3": 4818, "\u78a7": 4819, "\u78a9": 4820, "\u78b0": 4821, "\u78b1": 4822, "\u78b3": 4823, "\u78b4": 4824, "\u78ba": 4825, "\u78bc": 4826, "\u78be": 4827, "\u78c1": 4828, "\u78c5": 4829, "\u78ca": 4830, "\u78cb": 4831, "\u78d0": 4832, "\u78d5": 4833, "\u78da": 4834, "\u78e1": 4835, "\u78e8": 4836, "\u78ec": 4837, "\u78ef": 4838, "\u78f2": 4839, "\u78f7": 4840, "\u78fa": 4841, "\u7901": 4842, "\u790e": 4843, "\u7919": 4844, "\u7921": 4845, "\u7926": 4846, "\u792a": 4847, "\u792b": 4848, "\u7934": 4849, "\u793a": 4850, "\u793c": 4851, "\u793e": 4852, "\u7940": 4853, "\u7941": 4854, "\u7942": 4855, "\u7947": 4856, "\u7948": 4857, "\u7949": 4858, "\u794e": 4859, "\u7950": 4860, "\u7955": 4861, "\u7956": 4862, "\u7957": 4863, "\u795a": 4864, "\u795b": 4865, "\u795c": 4866, "\u795d": 4867, "\u795e": 4868, "\u795f": 4869, "\u7960": 4870, "\u7962": 4871, "\u7965": 4872, "\u7968": 4873, "\u796d": 4874, "\u796f": 4875, "\u7977": 4876, "\u7978": 4877, "\u797a": 4878, "\u797f": 4879, "\u7980": 4880, "\u7981": 4881, "\u7984": 4882, "\u7985": 4883, "\u798d": 4884, "\u798e": 4885, "\u798f": 4886, "\u799b": 4887, "\u79a6": 4888, "\u79a7": 4889, "\u79aa": 4890, "\u79ae": 4891, "\u79b1": 4892, "\u79b9": 4893, "\u79ba": 4894, "\u79bb": 4895, "\u79bd": 4896, "\u79be": 4897, "\u79bf": 4898, "\u79c0": 4899, "\u79c1": 4900, "\u79c3": 4901, "\u79c6": 4902, "\u79c9": 4903, "\u79cb": 4904, "\u79cd": 4905, "\u79d1": 4906, "\u79d2": 4907, "\u79d8": 4908, "\u79df": 4909, "\u79e3": 4910, "\u79e4": 4911, "\u79e6": 4912, "\u79e7": 4913, "\u79e9": 4914, "\u79ed": 4915, "\u79ef": 4916, "\u79f0": 4917, "\u79f8": 4918, "\u79fb": 4919, "\u79fd": 4920, "\u7a00": 4921, "\u7a05": 4922, "\u7a0b": 4923, "\u7a0d": 4924, "\u7a0e": 4925, "\u7a14": 4926, "\u7a17": 4927, "\u7a1a": 4928, "\u7a1c": 4929, "\u7a1e": 4930, "\u7a1f": 4931, "\u7a20": 4932, "\u7a23": 4933, "\u7a2e": 4934, "\u7a31": 4935, "\u7a32": 4936, "\u7a33": 4937, "\u7a37": 4938, "\u7a39": 4939, "\u7a3b": 4940, "\u7a3c": 4941, "\u7a3d": 4942, "\u7a3f": 4943, "\u7a40": 4944, "\u7a42": 4945, "\u7a46": 4946, "\u7a4c": 4947, "\u7a4d": 4948, "\u7a4e": 4949, "\u7a57": 4950, "\u7a62": 4951, "\u7a69": 4952, "\u7a6b": 4953, "\u7a74": 4954, "\u7a76": 4955, "\u7a77": 4956, "\u7a79": 4957, "\u7a7a": 4958, "\u7a7f": 4959, "\u7a81": 4960, "\u7a83": 4961, "\u7a84": 4962, "\u7a88": 4963, "\u7a8d": 4964, "\u7a91": 4965, "\u7a92": 4966, "\u7a93": 4967, "\u7a95": 4968, "\u7a96": 4969, "\u7a97": 4970, "\u7a98": 4971, "\u7a9c": 4972, "\u7a9d": 4973, "\u7a9f": 4974, "\u7aa0": 4975, "\u7aa5": 4976, "\u7aa6": 4977, "\u7aa8": 4978, "\u7aa9": 4979, "\u7aaa": 4980, "\u7aae": 4981, "\u7aaf": 4982, "\u7aba": 4983, "\u7abf": 4984, "\u7ac4": 4985, "\u7ac5": 4986, "\u7ac7": 4987, "\u7aca": 4988, "\u7acb": 4989, "\u7ad6": 4990, "\u7ad9": 4991, "\u7adc": 4992, "\u7ade": 4993, "\u7adf": 4994, "\u7ae0": 4995, "\u7ae3": 4996, "\u7ae5": 4997, "\u7aed": 4998, "\u7aef": 4999, "\u7af6": 5000, "\u7af9": 5001, "\u7afa": 5002, "\u7afd": 5003, "\u7aff": 5004, "\u7b03": 5005, "\u7b06": 5006, "\u7b08": 5007, "\u7b0b": 5008, "\u7b0f": 5009, "\u7b11": 5010, "\u7b14": 5011, "\u7b19": 5012, "\u7b1b": 5013, "\u7b1e": 5014, "\u7b20": 5015, "\u7b26": 5016, "\u7b28": 5017, "\u7b2c": 5018, "\u7b39": 5019, "\u7b3a": 5020, "\u7b3c": 5021, "\u7b46": 5022, "\u7b49": 5023, "\u7b4a": 5024, "\u7b4b": 5025, "\u7b4d": 5026, "\u7b4f": 5027, "\u7b50": 5028, "\u7b51": 5029, "\u7b52": 5030, "\u7b54": 5031, "\u7b56": 5032, "\u7b5b": 5033, "\u7b5d": 5034, "\u7b60": 5035, "\u7b71": 5036, "\u7b72": 5037, "\u7b75": 5038, "\u7b77": 5039, "\u7b79": 5040, "\u7b7e": 5041, "\u7b80": 5042, "\u7b87": 5043, "\u7b8b": 5044, "\u7b8d": 5045, "\u7b8f": 5046, "\u7b90": 5047, "\u7b94": 5048, "\u7b95": 5049, "\u7b97": 5050, "\u7b9d": 5051, "\u7ba1": 5052, "\u7ba9": 5053, "\u7bab": 5054, "\u7bad": 5055, "\u7bb1": 5056, "\u7bb4": 5057, "\u7bb8": 5058, "\u7bc0": 5059, "\u7bc1": 5060, "\u7bc4": 5061, "\u7bc6": 5062, "\u7bc7": 5063, "\u7bc9": 5064, "\u7bd1": 5065, "\u7bd3": 5066, "\u7bd9": 5067, "\u7bdd": 5068, "\u7be0": 5069, "\u7be1": 5070, "\u7be4": 5071, "\u7be9": 5072, "\u7bea": 5073, "\u7bee": 5074, "\u7bf1": 5075, "\u7bf7": 5076, "\u7c07": 5077, "\u7c0c": 5078, "\u7c0d": 5079, "\u7c21": 5080, "\u7c26": 5081, "\u7c27": 5082, "\u7c2a": 5083, "\u7c2b": 5084, "\u7c37": 5085, "\u7c38": 5086, "\u7c3d": 5087, "\u7c3e": 5088, "\u7c3f": 5089, "\u7c41": 5090, "\u7c43": 5091, "\u7c4c": 5092, "\u7c4d": 5093, "\u7c50": 5094, "\u7c5f": 5095, "\u7c60": 5096, "\u7c64": 5097, "\u7c6c": 5098, "\u7c6e": 5099, "\u7c72": 5100, "\u7c73": 5101, "\u7c7b": 5102, "\u7c7c": 5103, "\u7c7d": 5104, "\u7c84": 5105, "\u7c89": 5106, "\u7c91": 5107, "\u7c92": 5108, "\u7c95": 5109, "\u7c97": 5110, "\u7c98": 5111, "\u7c9f": 5112, "\u7ca4": 5113, "\u7ca5": 5114, "\u7ca7": 5115, "\u7caa": 5116, "\u7cae": 5117, "\u7cb1": 5118, "\u7cb2": 5119, "\u7cb3": 5120, "\u7cb5": 5121, "\u7cb9": 5122, "\u7cbc": 5123, "\u7cbd": 5124, "\u7cbe": 5125, "\u7cbf": 5126, "\u7cc5": 5127, "\u7cca": 5128, "\u7ccd": 5129, "\u7cd5": 5130, "\u7cd6": 5131, "\u7cd7": 5132, "\u7cd9": 5133, "\u7cdc": 5134, "\u7cde": 5135, "\u7cdf": 5136, "\u7ce0": 5137, "\u7ce7": 5138, "\u7cec": 5139, "\u7cef": 5140, "\u7cf0": 5141, "\u7cf8": 5142, "\u7cfb": 5143, "\u7cfe": 5144, "\u7d00": 5145, "\u7d02": 5146, "\u7d04": 5147, "\u7d05": 5148, "\u7d09": 5149, "\u7d0a": 5150, "\u7d0b": 5151, "\u7d0d": 5152, "\u7d10": 5153, "\u7d13": 5154, "\u7d14": 5155, "\u7d17": 5156, "\u7d18": 5157, "\u7d19": 5158, "\u7d1a": 5159, "\u7d1b": 5160, "\u7d1c": 5161, "\u7d20": 5162, "\u7d21": 5163, "\u7d22": 5164, "\u7d27": 5165, "\u7d2b": 5166, "\u7d2e": 5167, "\u7d2f": 5168, "\u7d30": 5169, "\u7d33": 5170, "\u7d39": 5171, "\u7d3a": 5172, "\u7d42": 5173, "\u7d43": 5174, "\u7d44": 5175, "\u7d46": 5176, "\u7d4c": 5177, "\u7d50": 5178, "\u7d55": 5179, "\u7d5e": 5180, "\u7d61": 5181, "\u7d62": 5182, "\u7d66": 5183, "\u7d68": 5184, "\u7d6e": 5185, "\u7d71": 5186, "\u7d72": 5187, "\u7d73": 5188, "\u7d75": 5189, "\u7d76": 5190, "\u7d79": 5191, "\u7d81": 5192, "\u7d8f": 5193, "\u7d91": 5194, "\u7d93": 5195, "\u7d99": 5196, "\u7d9a": 5197, "\u7d9c": 5198, "\u7da0": 5199, "\u7da2": 5200, "\u7da6": 5201, "\u7dab": 5202, "\u7dac": 5203, "\u7dad": 5204, "\u7db1": 5205, "\u7db2": 5206, "\u7db4": 5207, "\u7db5": 5208, "\u7db8": 5209, "\u7dba": 5210, "\u7dbb": 5211, "\u7dbd": 5212, "\u7dbe": 5213, "\u7dbf": 5214, "\u7dca": 5215, "\u7dcb": 5216, "\u7dcf": 5217, "\u7dd1": 5218, "\u7dd2": 5219, "\u7dd8": 5220, "\u7dda": 5221, "\u7ddd": 5222, "\u7dde": 5223, "\u7de0": 5224, "\u7de3": 5225, "\u7de8": 5226, "\u7de9": 5227, "\u7dec": 5228, "\u7def": 5229, "\u7df4": 5230, "\u7df9": 5231, "\u7dfb": 5232, "\u7e01": 5233, "\u7e04": 5234, "\u7e08": 5235, "\u7e1b": 5236, "\u7e1d": 5237, "\u7e23": 5238, "\u7e2b": 5239, "\u7e2e": 5240, "\u7e31": 5241, "\u7e34": 5242, "\u7e37": 5243, "\u7e3d": 5244, "\u7e3e": 5245, "\u7e41": 5246, "\u7e43": 5247, "\u7e46": 5248, "\u7e47": 5249, "\u7e4b": 5250, "\u7e54": 5251, "\u7e55": 5252, "\u7e5a": 5253, "\u7e5e": 5254, "\u7e61": 5255, "\u7e69": 5256, "\u7e6a": 5257, "\u7e6b": 5258, "\u7e6d": 5259, "\u7e73": 5260, "\u7e79": 5261, "\u7e7c": 5262, "\u7e7d": 5263, "\u7e82": 5264, "\u7e8c": 5265, "\u7e8d": 5266, "\u7e8f": 5267, "\u7e93": 5268, "\u7e94": 5269, "\u7e96": 5270, "\u7e9c": 5271, "\u7ea0": 5272, "\u7ea2": 5273, "\u7ea3": 5274, "\u7ea4": 5275, "\u7ea6": 5276, "\u7ea7": 5277, "\u7ea8": 5278, "\u7eaa": 5279, "\u7eab": 5280, "\u7eac": 5281, "\u7ead": 5282, "\u7eaf": 5283, "\u7eb0": 5284, "\u7eb1": 5285, "\u7eb2": 5286, "\u7eb3": 5287, "\u7eb5": 5288, "\u7eb6": 5289, "\u7eb7": 5290, "\u7eb8": 5291, "\u7eb9": 5292, "\u7eba": 5293, "\u7ebd": 5294, "\u7ebe": 5295, "\u7ebf": 5296, "\u7ec0": 5297, "\u7ec3": 5298, "\u7ec4": 5299, "\u7ec5": 5300, "\u7ec6": 5301, "\u7ec7": 5302, "\u7ec8": 5303, "\u7eca": 5304, "\u7ecd": 5305, "\u7ece": 5306, "\u7ecf": 5307, "\u7ed1": 5308, "\u7ed2": 5309, "\u7ed3": 5310, "\u7ed4": 5311, "\u7ed5": 5312, "\u7ed8": 5313, "\u7ed9": 5314, "\u7eda": 5315, "\u7edb": 5316, "\u7edc": 5317, "\u7edd": 5318, "\u7ede": 5319, "\u7edf": 5320, "\u7ee1": 5321, "\u7ee2": 5322, "\u7ee3": 5323, "\u7ee5": 5324, "\u7ee6": 5325, "\u7ee7": 5326, "\u7ee9": 5327, "\u7eea": 5328, "\u7eeb": 5329, "\u7eed": 5330, "\u7eee": 5331, "\u7eef": 5332, "\u7ef0": 5333, "\u7ef3": 5334, "\u7ef4": 5335, "\u7ef5": 5336, "\u7ef6": 5337, "\u7ef7": 5338, "\u7ef8": 5339, "\u7efb": 5340, "\u7efc": 5341, "\u7efd": 5342, "\u7efe": 5343, "\u7eff": 5344, "\u7f00": 5345, "\u7f04": 5346, "\u7f05": 5347, "\u7f06": 5348, "\u7f07": 5349, "\u7f08": 5350, "\u7f09": 5351, "\u7f0e": 5352, "\u7f13": 5353, "\u7f14": 5354, "\u7f15": 5355, "\u7f16": 5356, "\u7f18": 5357, "\u7f19": 5358, "\u7f1a": 5359, "\u7f1c": 5360, "\u7f1d": 5361, "\u7f20": 5362, "\u7f22": 5363, "\u7f24": 5364, "\u7f25": 5365, "\u7f28": 5366, "\u7f29": 5367, "\u7f2a": 5368, "\u7f2d": 5369, "\u7f2e": 5370, "\u7f30": 5371, "\u7f31": 5372, "\u7f34": 5373, "\u7f38": 5374, "\u7f3a": 5375, "\u7f3d": 5376, "\u7f42": 5377, "\u7f44": 5378, "\u7f4c": 5379, "\u7f50": 5380, "\u7f51": 5381, "\u7f54": 5382, "\u7f55": 5383, "\u7f57": 5384, "\u7f5a": 5385, "\u7f61": 5386, "\u7f62": 5387, "\u7f69": 5388, "\u7f6a": 5389, "\u7f6e": 5390, "\u7f70": 5391, "\u7f72": 5392, "\u7f75": 5393, "\u7f77": 5394, "\u7f79": 5395, "\u7f81": 5396, "\u7f85": 5397, "\u7f88": 5398, "\u7f8a": 5399, "\u7f8c": 5400, "\u7f8e": 5401, "\u7f94": 5402, "\u7f9a": 5403, "\u7f9e": 5404, "\u7f9f": 5405, "\u7fa1": 5406, "\u7fa3": 5407, "\u7fa4": 5408, "\u7fa5": 5409, "\u7fa7": 5410, "\u7fa8": 5411, "\u7fa9": 5412, "\u7faf": 5413, "\u7fb2": 5414, "\u7fb8": 5415, "\u7fb9": 5416, "\u7fbd": 5417, "\u7fbf": 5418, "\u7fc1": 5419, "\u7fc5": 5420, "\u7fca": 5421, "\u7fcc": 5422, "\u7fce": 5423, "\u7fd2": 5424, "\u7fd4": 5425, "\u7fd8": 5426, "\u7fdf": 5427, "\u7fe0": 5428, "\u7fe1": 5429, "\u7fe6": 5430, "\u7fe9": 5431, "\u7ff0": 5432, "\u7ff1": 5433, "\u7ff3": 5434, "\u7ff9": 5435, "\u7ffb": 5436, "\u7ffc": 5437, "\u8000": 5438, "\u8001": 5439, "\u8003": 5440, "\u8004": 5441, "\u8005": 5442, "\u8006": 5443, "\u800b": 5444, "\u800c": 5445, "\u800d": 5446, "\u8010": 5447, "\u8012": 5448, "\u8015": 5449, "\u8017": 5450, "\u8018": 5451, "\u8019": 5452, "\u8026": 5453, "\u8028": 5454, "\u8033": 5455, "\u8036": 5456, "\u8037": 5457, "\u8038": 5458, "\u803b": 5459, "\u803d": 5460, "\u803f": 5461, "\u8042": 5462, "\u8046": 5463, "\u804a": 5464, "\u804b": 5465, "\u804c": 5466, "\u8052": 5467, "\u8054": 5468, "\u8056": 5469, "\u8058": 5470, "\u805a": 5471, "\u805e": 5472, "\u806a": 5473, "\u806f": 5474, "\u8070": 5475, "\u8072": 5476, "\u8073": 5477, "\u8074": 5478, "\u8076": 5479, "\u8077": 5480, "\u807d": 5481, "\u807e": 5482, "\u807f": 5483, "\u8083": 5484, "\u8084": 5485, "\u8085": 5486, "\u8086": 5487, "\u8087": 5488, "\u8089": 5489, "\u808b": 5490, "\u808c": 5491, "\u808f": 5492, "\u8093": 5493, "\u8096": 5494, "\u8098": 5495, "\u809a": 5496, "\u809b": 5497, "\u809d": 5498, "\u80a0": 5499, "\u80a1": 5500, "\u80a2": 5501, "\u80a4": 5502, "\u80a5": 5503, "\u80a9": 5504, "\u80aa": 5505, "\u80ae": 5506, "\u80af": 5507, "\u80b1": 5508, "\u80b2": 5509, "\u80b4": 5510, "\u80ba": 5511, "\u80bd": 5512, "\u80be": 5513, "\u80bf": 5514, "\u80c0": 5515, "\u80c1": 5516, "\u80c3": 5517, "\u80c4": 5518, "\u80c6": 5519, "\u80cc": 5520, "\u80cd": 5521, "\u80ce": 5522, "\u80d6": 5523, "\u80da": 5524, "\u80db": 5525, "\u80dc": 5526, "\u80dd": 5527, "\u80de": 5528, "\u80e1": 5529, "\u80e4": 5530, "\u80e5": 5531, "\u80e7": 5532, "\u80eb": 5533, "\u80ed": 5534, "\u80ef": 5535, "\u80f0": 5536, "\u80f1": 5537, "\u80f3": 5538, "\u80f4": 5539, "\u80f6": 5540, "\u80f8": 5541, "\u80fa": 5542, "\u80fd": 5543, "\u8102": 5544, "\u8105": 5545, "\u8106": 5546, "\u8107": 5547, "\u8108": 5548, "\u8109": 5549, "\u810a": 5550, "\u810d": 5551, "\u810f": 5552, "\u8110": 5553, "\u8111": 5554, "\u8113": 5555, "\u8116": 5556, "\u8118": 5557, "\u811a": 5558, "\u811b": 5559, "\u8123": 5560, "\u8129": 5561, "\u812b": 5562, "\u812f": 5563, "\u8131": 5564, "\u8132": 5565, "\u8133": 5566, "\u8138": 5567, "\u8139": 5568, "\u813e": 5569, "\u8146": 5570, "\u8148": 5571, "\u814a": 5572, "\u814b": 5573, "\u814c": 5574, "\u814e": 5575, "\u8150": 5576, "\u8151": 5577, "\u8153": 5578, "\u8154": 5579, "\u8155": 5580, "\u8165": 5581, "\u8166": 5582, "\u8169": 5583, "\u816b": 5584, "\u816d": 5585, "\u816e": 5586, "\u8170": 5587, "\u8171": 5588, "\u8173": 5589, "\u8174": 5590, "\u8178": 5591, "\u8179": 5592, "\u817a": 5593, "\u817b": 5594, "\u817c": 5595, "\u817e": 5596, "\u817f": 5597, "\u8180": 5598, "\u8188": 5599, "\u818a": 5600, "\u818f": 5601, "\u8191": 5602, "\u8198": 5603, "\u819a": 5604, "\u819b": 5605, "\u819c": 5606, "\u819d": 5607, "\u81a0": 5608, "\u81a6": 5609, "\u81a8": 5610, "\u81a9": 5611, "\u81b3": 5612, "\u81ba": 5613, "\u81bb": 5614, "\u81bd": 5615, "\u81be": 5616, "\u81bf": 5617, "\u81c0": 5618, "\u81c2": 5619, "\u81c3": 5620, "\u81c6": 5621, "\u81c9": 5622, "\u81ca": 5623, "\u81cd": 5624, "\u81d3": 5625, "\u81d8": 5626, "\u81df": 5627, "\u81e3": 5628, "\u81e5": 5629, "\u81e7": 5630, "\u81e8": 5631, "\u81ea": 5632, "\u81ec": 5633, "\u81ed": 5634, "\u81f3": 5635, "\u81f4": 5636, "\u81fa": 5637, "\u81fb": 5638, "\u81fc": 5639, "\u81fe": 5640, "\u8200": 5641, "\u8202": 5642, "\u8205": 5643, "\u8206": 5644, "\u8207": 5645, "\u8208": 5646, "\u8209": 5647, "\u820a": 5648, "\u820c": 5649, "\u820d": 5650, "\u820e": 5651, "\u8210": 5652, "\u8212": 5653, "\u8214": 5654, "\u8216": 5655, "\u8217": 5656, "\u821b": 5657, "\u821c": 5658, "\u821e": 5659, "\u821f": 5660, "\u822a": 5661, "\u822b": 5662, "\u822c": 5663, "\u8230": 5664, "\u8231": 5665, "\u8235": 5666, "\u8236": 5667, "\u8237": 5668, "\u8238": 5669, "\u8239": 5670, "\u823a": 5671, "\u823e": 5672, "\u8247": 5673, "\u824b": 5674, "\u8258": 5675, "\u8259": 5676, "\u8266": 5677, "\u826e": 5678, "\u826f": 5679, "\u8270": 5680, "\u8271": 5681, "\u8272": 5682, "\u8273": 5683, "\u8277": 5684, "\u8279": 5685, "\u827a": 5686, "\u827e": 5687, "\u8282": 5688, "\u8283": 5689, "\u8288": 5690, "\u828a": 5691, "\u828b": 5692, "\u828d": 5693, "\u828e": 5694, "\u8292": 5695, "\u8299": 5696, "\u829c": 5697, "\u829d": 5698, "\u82a1": 5699, "\u82a5": 5700, "\u82a6": 5701, "\u82a9": 5702, "\u82aa": 5703, "\u82ab": 5704, "\u82ac": 5705, "\u82ad": 5706, "\u82ae": 5707, "\u82af": 5708, "\u82b1": 5709, "\u82b3": 5710, "\u82b7": 5711, "\u82b8": 5712, "\u82b9": 5713, "\u82bb": 5714, "\u82bd": 5715, "\u82be": 5716, "\u82c1": 5717, "\u82c4": 5718, "\u82c7": 5719, "\u82cb": 5720, "\u82cd": 5721, "\u82cf": 5722, "\u82d1": 5723, "\u82d2": 5724, "\u82d3": 5725, "\u82d4": 5726, "\u82d5": 5727, "\u82d7": 5728, "\u82db": 5729, "\u82dc": 5730, "\u82de": 5731, "\u82df": 5732, "\u82e1": 5733, "\u82e3": 5734, "\u82e5": 5735, "\u82e6": 5736, "\u82eb": 5737, "\u82ef": 5738, "\u82f1": 5739, "\u82f7": 5740, "\u82f9": 5741, "\u82fb": 5742, "\u8301": 5743, "\u8302": 5744, "\u8303": 5745, "\u8304": 5746, "\u8305": 5747, "\u8309": 5748, "\u830e": 5749, "\u830f": 5750, "\u8317": 5751, "\u831c": 5752, "\u8327": 5753, "\u8328": 5754, "\u832b": 5755, "\u832c": 5756, "\u832d": 5757, "\u832f": 5758, "\u8331": 5759, "\u8332": 5760, "\u8334": 5761, "\u8335": 5762, "\u8336": 5763, "\u8338": 5764, "\u8339": 5765, "\u833c": 5766, "\u8340": 5767, "\u8343": 5768, "\u8346": 5769, "\u8349": 5770, "\u834a": 5771, "\u834f": 5772, "\u8350": 5773, "\u8352": 5774, "\u8354": 5775, "\u8356": 5776, "\u8358": 5777, "\u835a": 5778, "\u835e": 5779, "\u835f": 5780, "\u8360": 5781, "\u8361": 5782, "\u8363": 5783, "\u8364": 5784, "\u8365": 5785, "\u8367": 5786, "\u8368": 5787, "\u836a": 5788, "\u836b": 5789, "\u836f": 5790, "\u8373": 5791, "\u8377": 5792, "\u8378": 5793, "\u837b": 5794, "\u837c": 5795, "\u837d": 5796, "\u8385": 5797, "\u8386": 5798, "\u8389": 5799, "\u838a": 5800, "\u838e": 5801, "\u8392": 5802, "\u8393": 5803, "\u8396": 5804, "\u8398": 5805, "\u839e": 5806, "\u83a0": 5807, "\u83a2": 5808, "\u83a7": 5809, "\u83aa": 5810, "\u83ab": 5811, "\u83b1": 5812, "\u83b2": 5813, "\u83b4": 5814, "\u83b7": 5815, "\u83b9": 5816, "\u83ba": 5817, "\u83bd": 5818, "\u83bf": 5819, "\u83c0": 5820, "\u83c1": 5821, "\u83c5": 5822, "\u83c7": 5823, "\u83c8": 5824, "\u83ca": 5825, "\u83cc": 5826, "\u83cf": 5827, "\u83d3": 5828, "\u83d6": 5829, "\u83d8": 5830, "\u83dc": 5831, "\u83df": 5832, "\u83e0": 5833, "\u83e1": 5834, "\u83e9": 5835, "\u83ef": 5836, "\u83f1": 5837, "\u83f2": 5838, "\u83f8": 5839, "\u83fd": 5840, "\u8401": 5841, "\u8403": 5842, "\u8404": 5843, "\u840a": 5844, "\u840b": 5845, "\u840c": 5846, "\u840d": 5847, "\u840e": 5848, "\u8418": 5849, "\u841d": 5850, "\u8424": 5851, "\u8425": 5852, "\u8426": 5853, "\u8427": 5854, "\u8428": 5855, "\u8429": 5856, "\u842c": 5857, "\u8431": 5858, "\u8435": 5859, "\u8438": 5860, "\u843c": 5861, "\u843d": 5862, "\u8446": 5863, "\u8449": 5864, "\u8457": 5865, "\u845a": 5866, "\u845b": 5867, "\u8461": 5868, "\u8463": 5869, "\u8466": 5870, "\u8469": 5871, "\u846b": 5872, "\u846c": 5873, "\u846d": 5874, "\u846f": 5875, "\u8471": 5876, "\u8473": 5877, "\u8475": 5878, "\u8477": 5879, "\u847a": 5880, "\u8482": 5881, "\u848b": 5882, "\u8490": 5883, "\u8494": 5884, "\u8499": 5885, "\u849c": 5886, "\u849e": 5887, "\u849f": 5888, "\u84a1": 5889, "\u84a8": 5890, "\u84b2": 5891, "\u84b8": 5892, "\u84b9": 5893, "\u84bb": 5894, "\u84bc": 5895, "\u84bf": 5896, "\u84c1": 5897, "\u84c4": 5898, "\u84c6": 5899, "\u84c9": 5900, "\u84cb": 5901, "\u84d1": 5902, "\u84d3": 5903, "\u84d6": 5904, "\u84dd": 5905, "\u84df": 5906, "\u84e6": 5907, "\u84ec": 5908, "\u84ee": 5909, "\u84fc": 5910, "\u84ff": 5911, "\u8511": 5912, "\u8513": 5913, "\u8514": 5914, "\u8517": 5915, "\u8518": 5916, "\u851a": 5917, "\u8521": 5918, "\u8523": 5919, "\u8525": 5920, "\u852b": 5921, "\u852c": 5922, "\u852d": 5923, "\u8535": 5924, "\u8537": 5925, "\u853a": 5926, "\u853b": 5927, "\u853c": 5928, "\u853d": 5929, "\u8541": 5930, "\u8543": 5931, "\u8548": 5932, "\u8549": 5933, "\u854a": 5934, "\u854e": 5935, "\u8559": 5936, "\u8564": 5937, "\u8568": 5938, "\u8569": 5939, "\u856a": 5940, "\u856d": 5941, "\u8572": 5942, "\u8574": 5943, "\u857b": 5944, "\u857e": 5945, "\u8584": 5946, "\u8585": 5947, "\u8587": 5948, "\u8588": 5949, "\u858a": 5950, "\u858f": 5951, "\u8591": 5952, "\u8594": 5953, "\u8599": 5954, "\u859b": 5955, "\u85a6": 5956, "\u85a8": 5957, "\u85a9": 5958, "\u85aa": 5959, "\u85ac": 5960, "\u85af": 5961, "\u85b0": 5962, "\u85b9": 5963, "\u85c9": 5964, "\u85cd": 5965, "\u85cf": 5966, "\u85d0": 5967, "\u85d3": 5968, "\u85d5": 5969, "\u85dc": 5970, "\u85dd": 5971, "\u85e4": 5972, "\u85e5": 5973, "\u85e9": 5974, "\u85f9": 5975, "\u85fb": 5976, "\u85ff": 5977, "\u8606": 5978, "\u8607": 5979, "\u860a": 5980, "\u860b": 5981, "\u8611": 5982, "\u861a": 5983, "\u862d": 5984, "\u8638": 5985, "\u863c": 5986, "\u863f": 5987, "\u864e": 5988, "\u864f": 5989, "\u8650": 5990, "\u8651": 5991, "\u8654": 5992, "\u8655": 5993, "\u865a": 5994, "\u865b": 5995, "\u865c": 5996, "\u865e": 5997, "\u865f": 5998, "\u8662": 5999, "\u8667": 6000, "\u866b": 6001, "\u866c": 6002, "\u8671": 6003, "\u8679": 6004, "\u867b": 6005, "\u867d": 6006, "\u867e": 6007, "\u8680": 6008, "\u8681": 6009, "\u8682": 6010, "\u868a": 6011, "\u868c": 6012, "\u8693": 6013, "\u8695": 6014, "\u869c": 6015, "\u869d": 6016, "\u86a3": 6017, "\u86a4": 6018, "\u86a9": 6019, "\u86aa": 6020, "\u86af": 6021, "\u86b1": 6022, "\u86b5": 6023, "\u86c0": 6024, "\u86c6": 6025, "\u86c7": 6026, "\u86ca": 6027, "\u86cb": 6028, "\u86ce": 6029, "\u86d0": 6030, "\u86d4": 6031, "\u86d9": 6032, "\u86db": 6033, "\u86df": 6034, "\u86e4": 6035, "\u86ed": 6036, "\u86ee": 6037, "\u86f0": 6038, "\u86f3": 6039, "\u86f9": 6040, "\u86fb": 6041, "\u86fe": 6042, "\u8700": 6043, "\u8702": 6044, "\u8703": 6045, "\u8706": 6046, "\u8707": 6047, "\u8708": 6048, "\u870a": 6049, "\u870d": 6050, "\u8712": 6051, "\u8713": 6052, "\u8715": 6053, "\u8717": 6054, "\u8718": 6055, "\u871a": 6056, "\u871c": 6057, "\u8721": 6058, "\u8722": 6059, "\u8725": 6060, "\u8731": 6061, "\u8734": 6062, "\u8737": 6063, "\u873b": 6064, "\u873f": 6065, "\u8747": 6066, "\u8748": 6067, "\u8749": 6068, "\u874c": 6069, "\u874e": 6070, "\u8755": 6071, "\u8757": 6072, "\u8759": 6073, "\u875f": 6074, "\u8760": 6075, "\u8766": 6076, "\u8768": 6077, "\u8774": 6078, "\u8776": 6079, "\u8778": 6080, "\u877c": 6081, "\u8782": 6082, "\u8783": 6083, "\u878d": 6084, "\u879e": 6085, "\u87a2": 6086, "\u87a8": 6087, "\u87af": 6088, "\u87b3": 6089, "\u87ba": 6090, "\u87c0": 6091, "\u87c4": 6092, "\u87c6": 6093, "\u87cb": 6094, "\u87ce": 6095, "\u87d1": 6096, "\u87d2": 6097, "\u87e0": 6098, "\u87ec": 6099, "\u87f2": 6100, "\u87f9": 6101, "\u87fb": 6102, "\u87fe": 6103, "\u8805": 6104, "\u880d": 6105, "\u8814": 6106, "\u8815": 6107, "\u881b": 6108, "\u881f": 6109, "\u8821": 6110, "\u8822": 6111, "\u8823": 6112, "\u8831": 6113, "\u8836": 6114, "\u8839": 6115, "\u883b": 6116, "\u8840": 6117, "\u8844": 6118, "\u8845": 6119, "\u8846": 6120, "\u884c": 6121, "\u884d": 6122, "\u8853": 6123, "\u8854": 6124, "\u8857": 6125, "\u8859": 6126, "\u885b": 6127, "\u885d": 6128, "\u885e": 6129, "\u8861": 6130, "\u8862": 6131, "\u8863": 6132, "\u8865": 6133, "\u8868": 6134, "\u8869": 6135, "\u886b": 6136, "\u886c": 6137, "\u886e": 6138, "\u8870": 6139, "\u8872": 6140, "\u8877": 6141, "\u8879": 6142, "\u887e": 6143, "\u887f": 6144, "\u8881": 6145, "\u8882": 6146, "\u8884": 6147, "\u8885": 6148, "\u8888": 6149, "\u888b": 6150, "\u888d": 6151, "\u8892": 6152, "\u8896": 6153, "\u889c": 6154, "\u889e": 6155, "\u88a4": 6156, "\u88aa": 6157, "\u88ab": 6158, "\u88ad": 6159, "\u88b1": 6160, "\u88c1": 6161, "\u88c2": 6162, "\u88c5": 6163, "\u88c6": 6164, "\u88ca": 6165, "\u88cf": 6166, "\u88d4": 6167, "\u88d5": 6168, "\u88d8": 6169, "\u88d9": 6170, "\u88dc": 6171, "\u88dd": 6172, "\u88df": 6173, "\u88e1": 6174, "\u88e4": 6175, "\u88e8": 6176, "\u88f1": 6177, "\u88f3": 6178, "\u88f4": 6179, "\u88f8": 6180, "\u88f9": 6181, "\u88fd": 6182, "\u88fe": 6183, "\u8902": 6184, "\u8907": 6185, "\u8910": 6186, "\u8912": 6187, "\u8913": 6188, "\u8914": 6189, "\u891a": 6190, "\u8925": 6191, "\u892a": 6192, "\u892b": 6193, "\u8932": 6194, "\u8936": 6195, "\u893b": 6196, "\u8941": 6197, "\u8944": 6198, "\u895f": 6199, "\u8960": 6200, "\u896a": 6201, "\u896c": 6202, "\u896f": 6203, "\u8972": 6204, "\u897f": 6205, "\u8981": 6206, "\u8983": 6207, "\u8986": 6208, "\u8987": 6209, "\u898b": 6210, "\u898f": 6211, "\u8993": 6212, "\u8996": 6213, "\u899a": 6214, "\u89a6": 6215, "\u89a7": 6216, "\u89aa": 6217, "\u89ac": 6218, "\u89b3": 6219, "\u89b7": 6220, "\u89ba": 6221, "\u89bd": 6222, "\u89c0": 6223, "\u89c1": 6224, "\u89c2": 6225, "\u89c4": 6226, "\u89c5": 6227, "\u89c6": 6228, "\u89c8": 6229, "\u89c9": 6230, "\u89ca": 6231, "\u89ce": 6232, "\u89d0": 6233, "\u89d1": 6234, "\u89d2": 6235, "\u89de": 6236, "\u89e3": 6237, "\u89e5": 6238, "\u89e6": 6239, "\u89f8": 6240, "\u8a00": 6241, "\u8a02": 6242, "\u8a08": 6243, "\u8a0a": 6244, "\u8a0e": 6245, "\u8a13": 6246, "\u8a15": 6247, "\u8a16": 6248, "\u8a17": 6249, "\u8a18": 6250, "\u8a1b": 6251, "\u8a1d": 6252, "\u8a1f": 6253, "\u8a23": 6254, "\u8a25": 6255, "\u8a2a": 6256, "\u8a2d": 6257, "\u8a31": 6258, "\u8a33": 6259, "\u8a34": 6260, "\u8a36": 6261, "\u8a3a": 6262, "\u8a3b": 6263, "\u8a3c": 6264, "\u8a46": 6265, "\u8a50": 6266, "\u8a54": 6267, "\u8a55": 6268, "\u8a5b": 6269, "\u8a5e": 6270, "\u8a60": 6271, "\u8a61": 6272, "\u8a62": 6273, "\u8a63": 6274, "\u8a66": 6275, "\u8a69": 6276, "\u8a6b": 6277, "\u8a6c": 6278, "\u8a6d": 6279, "\u8a6e": 6280, "\u8a70": 6281, "\u8a71": 6282, "\u8a72": 6283, "\u8a73": 6284, "\u8a79": 6285, "\u8a7c": 6286, "\u8a85": 6287, "\u8a87": 6288, "\u8a89": 6289, "\u8a8c": 6290, "\u8a8d": 6291, "\u8a93": 6292, "\u8a95": 6293, "\u8a98": 6294, "\u8a9e": 6295, "\u8aa0": 6296, "\u8aa1": 6297, "\u8aa3": 6298, "\u8aa4": 6299, "\u8aa5": 6300, "\u8aa6": 6301, "\u8aa8": 6302, "\u8aaa": 6303, "\u8aac": 6304, "\u8aad": 6305, "\u8ab0": 6306, "\u8ab2": 6307, "\u8ab9": 6308, "\u8abc": 6309, "\u8abf": 6310, "\u8ac4": 6311, "\u8ac7": 6312, "\u8acb": 6313, "\u8acf": 6314, "\u8ad2": 6315, "\u8ad6": 6316, "\u8ad7": 6317, "\u8adc": 6318, "\u8ae1": 6319, "\u8ae6": 6320, "\u8ae7": 6321, "\u8aeb": 6322, "\u8aed": 6323, "\u8aee": 6324, "\u8af1": 6325, "\u8af3": 6326, "\u8af7": 6327, "\u8af8": 6328, "\u8afa": 6329, "\u8afe": 6330, "\u8b00": 6331, "\u8b01": 6332, "\u8b02": 6333, "\u8b04": 6334, "\u8b0a": 6335, "\u8b0e": 6336, "\u8b10": 6337, "\u8b14": 6338, "\u8b17": 6339, "\u8b19": 6340, "\u8b1b": 6341, "\u8b1d": 6342, "\u8b20": 6343, "\u8b28": 6344, "\u8b2c": 6345, "\u8b39": 6346, "\u8b3e": 6347, "\u8b41": 6348, "\u8b49": 6349, "\u8b4e": 6350, "\u8b4f": 6351, "\u8b58": 6352, "\u8b59": 6353, "\u8b5a": 6354, "\u8b5c": 6355, "\u8b66": 6356, "\u8b6c": 6357, "\u8b6f": 6358, "\u8b70": 6359, "\u8b72": 6360, "\u8b74": 6361, "\u8b77": 6362, "\u8b7d": 6363, "\u8b80": 6364, "\u8b8a": 6365, "\u8b93": 6366, "\u8b9a": 6367, "\u8b9e": 6368, "\u8ba1": 6369, "\u8ba2": 6370, "\u8ba4": 6371, "\u8ba5": 6372, "\u8ba7": 6373, "\u8ba8": 6374, "\u8ba9": 6375, "\u8baa": 6376, "\u8bab": 6377, "\u8bad": 6378, "\u8bae": 6379, "\u8baf": 6380, "\u8bb0": 6381, "\u8bb2": 6382, "\u8bb3": 6383, "\u8bb4": 6384, "\u8bb6": 6385, "\u8bb7": 6386, "\u8bb8": 6387, "\u8bb9": 6388, "\u8bba": 6389, "\u8bbc": 6390, "\u8bbd": 6391, "\u8bbe": 6392, "\u8bbf": 6393, "\u8bc0": 6394, "\u8bc1": 6395, "\u8bc3": 6396, "\u8bc4": 6397, "\u8bc5": 6398, "\u8bc6": 6399, "\u8bc8": 6400, "\u8bc9": 6401, "\u8bca": 6402, "\u8bcb": 6403, "\u8bcd": 6404, "\u8bcf": 6405, "\u8bd1": 6406, "\u8bd5": 6407, "\u8bd7": 6408, "\u8bd8": 6409, "\u8bd9": 6410, "\u8bda": 6411, "\u8bdb": 6412, "\u8bdd": 6413, "\u8bde": 6414, "\u8bdf": 6415, "\u8be0": 6416, "\u8be1": 6417, "\u8be2": 6418, "\u8be3": 6419, "\u8be4": 6420, "\u8be5": 6421, "\u8be6": 6422, "\u8be7": 6423, "\u8be9": 6424, "\u8beb": 6425, "\u8bec": 6426, "\u8bed": 6427, "\u8bef": 6428, "\u8bf0": 6429, "\u8bf1": 6430, "\u8bf2": 6431, "\u8bf4": 6432, "\u8bf5": 6433, "\u8bf6": 6434, "\u8bf7": 6435, "\u8bf8": 6436, "\u8bfa": 6437, "\u8bfb": 6438, "\u8bfd": 6439, "\u8bfe": 6440, "\u8bff": 6441, "\u8c00": 6442, "\u8c01": 6443, "\u8c03": 6444, "\u8c04": 6445, "\u8c05": 6446, "\u8c06": 6447, "\u8c08": 6448, "\u8c0a": 6449, "\u8c0b": 6450, "\u8c0c": 6451, "\u8c0d": 6452, "\u8c0e": 6453, "\u8c0f": 6454, "\u8c10": 6455, "\u8c11": 6456, "\u8c12": 6457, "\u8c13": 6458, "\u8c14": 6459, "\u8c15": 6460, "\u8c17": 6461, "\u8c18": 6462, "\u8c19": 6463, "\u8c1a": 6464, "\u8c1b": 6465, "\u8c1c": 6466, "\u8c1f": 6467, "\u8c22": 6468, "\u8c23": 6469, "\u8c24": 6470, "\u8c25": 6471, "\u8c26": 6472, "\u8c27": 6473, "\u8c28": 6474, "\u8c29": 6475, "\u8c2a": 6476, "\u8c2c": 6477, "\u8c2d": 6478, "\u8c2f": 6479, "\u8c31": 6480, "\u8c32": 6481, "\u8c34": 6482, "\u8c36": 6483, "\u8c37": 6484, "\u8c41": 6485, "\u8c46": 6486, "\u8c47": 6487, "\u8c48": 6488, "\u8c49": 6489, "\u8c4a": 6490, "\u8c4c": 6491, "\u8c4e": 6492, "\u8c50": 6493, "\u8c54": 6494, "\u8c5a": 6495, "\u8c61": 6496, "\u8c62": 6497, "\u8c6a": 6498, "\u8c6b": 6499, "\u8c6c": 6500, "\u8c79": 6501, "\u8c7a": 6502, "\u8c82": 6503, "\u8c85": 6504, "\u8c8c": 6505, "\u8c93": 6506, "\u8c94": 6507, "\u8c98": 6508, "\u8c9d": 6509, "\u8c9e": 6510, "\u8ca0": 6511, "\u8ca1": 6512, "\u8ca2": 6513, "\u8ca7": 6514, "\u8ca8": 6515, "\u8ca9": 6516, "\u8caa": 6517, "\u8cab": 6518, "\u8cac": 6519, "\u8caf": 6520, "\u8cb0": 6521, "\u8cb3": 6522, "\u8cb4": 6523, "\u8cb6": 6524, "\u8cb7": 6525, "\u8cb8": 6526, "\u8cbb": 6527, "\u8cbc": 6528, "\u8cbd": 6529, "\u8cbf": 6530, "\u8cc0": 6531, "\u8cc1": 6532, "\u8cc2": 6533, "\u8cc3": 6534, "\u8cc4": 6535, "\u8cc7": 6536, "\u8cc8": 6537, "\u8cca": 6538, "\u8cd1": 6539, "\u8cd3": 6540, "\u8cdc": 6541, "\u8cde": 6542, "\u8ce0": 6543, "\u8ce1": 6544, "\u8ce2": 6545, "\u8ce3": 6546, "\u8ce4": 6547, "\u8ce6": 6548, "\u8cea": 6549, "\u8cec": 6550, "\u8ced": 6551, "\u8cf4": 6552, "\u8cfa": 6553, "\u8cfc": 6554, "\u8cfd": 6555, "\u8d05": 6556, "\u8d08": 6557, "\u8d0a": 6558, "\u8d0d": 6559, "\u8d0f": 6560, "\u8d13": 6561, "\u8d16": 6562, "\u8d1b": 6563, "\u8d1d": 6564, "\u8d1e": 6565, "\u8d1f": 6566, "\u8d21": 6567, "\u8d22": 6568, "\u8d23": 6569, "\u8d24": 6570, "\u8d25": 6571, "\u8d26": 6572, "\u8d27": 6573, "\u8d28": 6574, "\u8d29": 6575, "\u8d2a": 6576, "\u8d2b": 6577, "\u8d2c": 6578, "\u8d2d": 6579, "\u8d2e": 6580, "\u8d2f": 6581, "\u8d30": 6582, "\u8d31": 6583, "\u8d32": 6584, "\u8d34": 6585, "\u8d35": 6586, "\u8d37": 6587, "\u8d38": 6588, "\u8d39": 6589, "\u8d3a": 6590, "\u8d3b": 6591, "\u8d3c": 6592, "\u8d3e": 6593, "\u8d3f": 6594, "\u8d41": 6595, "\u8d42": 6596, "\u8d43": 6597, "\u8d44": 6598, "\u8d45": 6599, "\u8d48": 6600, "\u8d4a": 6601, "\u8d4b": 6602, "\u8d4c": 6603, "\u8d4e": 6604, "\u8d4f": 6605, "\u8d50": 6606, "\u8d53": 6607, "\u8d54": 6608, "\u8d56": 6609, "\u8d58": 6610, "\u8d5a": 6611, "\u8d5b": 6612, "\u8d5d": 6613, "\u8d5e": 6614, "\u8d60": 6615, "\u8d61": 6616, "\u8d62": 6617, "\u8d63": 6618, "\u8d64": 6619, "\u8d66": 6620, "\u8d67": 6621, "\u8d6b": 6622, "\u8d6d": 6623, "\u8d70": 6624, "\u8d73": 6625, "\u8d74": 6626, "\u8d75": 6627, "\u8d76": 6628, "\u8d77": 6629, "\u8d81": 6630, "\u8d85": 6631, "\u8d8a": 6632, "\u8d8b": 6633, "\u8d95": 6634, "\u8d99": 6635, "\u8d9f": 6636, "\u8da3": 6637, "\u8da8": 6638, "\u8db3": 6639, "\u8db4": 6640, "\u8db5": 6641, "\u8db8": 6642, "\u8dba": 6643, "\u8dbe": 6644, "\u8dc3": 6645, "\u8dc4": 6646, "\u8dc6": 6647, "\u8dcb": 6648, "\u8dcc": 6649, "\u8dce": 6650, "\u8dd1": 6651, "\u8dd6": 6652, "\u8dda": 6653, "\u8ddb": 6654, "\u8ddd": 6655, "\u8ddf": 6656, "\u8de1": 6657, "\u8de4": 6658, "\u8de8": 6659, "\u8de9": 6660, "\u8dea": 6661, "\u8def": 6662, "\u8df3": 6663, "\u8df5": 6664, "\u8df7": 6665, "\u8df9": 6666, "\u8dfa": 6667, "\u8dfb": 6668, "\u8e09": 6669, "\u8e0a": 6670, "\u8e0c": 6671, "\u8e0f": 6672, "\u8e10": 6673, "\u8e1d": 6674, "\u8e1e": 6675, "\u8e1f": 6676, "\u8e22": 6677, "\u8e29": 6678, "\u8e2a": 6679, "\u8e2e": 6680, "\u8e31": 6681, "\u8e34": 6682, "\u8e35": 6683, "\u8e39": 6684, "\u8e42": 6685, "\u8e44": 6686, "\u8e47": 6687, "\u8e48": 6688, "\u8e49": 6689, "\u8e4a": 6690, "\u8e4b": 6691, "\u8e51": 6692, "\u8e52": 6693, "\u8e59": 6694, "\u8e5f": 6695, "\u8e63": 6696, "\u8e64": 6697, "\u8e66": 6698, "\u8e69": 6699, "\u8e6c": 6700, "\u8e6d": 6701, "\u8e72": 6702, "\u8e74": 6703, "\u8e76": 6704, "\u8e7a": 6705, "\u8e7c": 6706, "\u8e7f": 6707, "\u8e81": 6708, "\u8e87": 6709, "\u8e89": 6710, "\u8e8a": 6711, "\u8e8b": 6712, "\u8e8d": 6713, "\u8e8f": 6714, "\u8eaa": 6715, "\u8eab": 6716, "\u8eac": 6717, "\u8eaf": 6718, "\u8eb2": 6719, "\u8eba": 6720, "\u8ec0": 6721, "\u8eca": 6722, "\u8ecb": 6723, "\u8ecc": 6724, "\u8ecd": 6725, "\u8ed2": 6726, "\u8edf": 6727, "\u8ee2": 6728, "\u8ef8": 6729, "\u8efc": 6730, "\u8efd": 6731, "\u8efe": 6732, "\u8f03": 6733, "\u8f09": 6734, "\u8f12": 6735, "\u8f13": 6736, "\u8f14": 6737, "\u8f15": 6738, "\u8f1b": 6739, "\u8f1d": 6740, "\u8f1f": 6741, "\u8f29": 6742, "\u8f2a": 6743, "\u8f2f": 6744, "\u8f38": 6745, "\u8f3b": 6746, "\u8f3e": 6747, "\u8f3f": 6748, "\u8f44": 6749, "\u8f45": 6750, "\u8f46": 6751, "\u8f49": 6752, "\u8f4d": 6753, "\u8f4e": 6754, "\u8f5f": 6755, "\u8f66": 6756, "\u8f67": 6757, "\u8f68": 6758, "\u8f69": 6759, "\u8f6c": 6760, "\u8f6d": 6761, "\u8f6e": 6762, "\u8f6f": 6763, "\u8f70": 6764, "\u8f72": 6765, "\u8f74": 6766, "\u8f76": 6767, "\u8f7b": 6768, "\u8f7c": 6769, "\u8f7d": 6770, "\u8f7f": 6771, "\u8f83": 6772, "\u8f84": 6773, "\u8f85": 6774, "\u8f86": 6775, "\u8f87": 6776, "\u8f88": 6777, "\u8f89": 6778, "\u8f8a": 6779, "\u8f8d": 6780, "\u8f90": 6781, "\u8f91": 6782, "\u8f93": 6783, "\u8f95": 6784, "\u8f96": 6785, "\u8f97": 6786, "\u8f98": 6787, "\u8f99": 6788, "\u8f9b": 6789, "\u8f9c": 6790, "\u8f9e": 6791, "\u8f9f": 6792, "\u8fa3": 6793, "\u8fa6": 6794, "\u8fa8": 6795, "\u8fa9": 6796, "\u8fab": 6797, "\u8fad": 6798, "\u8fae": 6799, "\u8faf": 6800, "\u8fb0": 6801, "\u8fb1": 6802, "\u8fb2": 6803, "\u8fb9": 6804, "\u8fba": 6805, "\u8fbb": 6806, "\u8fbc": 6807, "\u8fbd": 6808, "\u8fbe": 6809, "\u8fc1": 6810, "\u8fc2": 6811, "\u8fc4": 6812, "\u8fc5": 6813, "\u8fc7": 6814, "\u8fc8": 6815, "\u8fce": 6816, "\u8fd0": 6817, "\u8fd1": 6818, "\u8fd4": 6819, "\u8fd8": 6820, "\u8fd9": 6821, "\u8fdb": 6822, "\u8fdc": 6823, "\u8fdd": 6824, "\u8fde": 6825, "\u8fdf": 6826, "\u8fe2": 6827, "\u8fe4": 6828, "\u8fe5": 6829, "\u8fe6": 6830, "\u8fe9": 6831, "\u8fea": 6832, "\u8feb": 6833, "\u8fed": 6834, "\u8ff0": 6835, "\u8ff4": 6836, "\u8ff7": 6837, "\u8ff8": 6838, "\u8ff9": 6839, "\u8ffa": 6840, "\u8ffd": 6841, "\u9000": 6842, "\u9001": 6843, "\u9002": 6844, "\u9003": 6845, "\u9005": 6846, "\u9006": 6847, "\u9009": 6848, "\u900a": 6849, "\u900d": 6850, "\u900f": 6851, "\u9010": 6852, "\u9012": 6853, "\u9014": 6854, "\u9015": 6855, "\u9017": 6856, "\u9019": 6857, "\u901a": 6858, "\u901b": 6859, "\u901d": 6860, "\u901e": 6861, "\u901f": 6862, "\u9020": 6863, "\u9022": 6864, "\u9023": 6865, "\u902e": 6866, "\u9031": 6867, "\u9032": 6868, "\u9035": 6869, "\u9036": 6870, "\u9038": 6871, "\u903b": 6872, "\u903c": 6873, "\u903e": 6874, "\u9041": 6875, "\u9042": 6876, "\u9045": 6877, "\u9047": 6878, "\u904a": 6879, "\u904b": 6880, "\u904d": 6881, "\u904e": 6882, "\u904f": 6883, "\u9050": 6884, "\u9051": 6885, "\u9052": 6886, "\u9053": 6887, "\u9054": 6888, "\u9055": 6889, "\u9057": 6890, "\u9059": 6891, "\u905b": 6892, "\u905c": 6893, "\u905e": 6894, "\u9060": 6895, "\u9062": 6896, "\u9063": 6897, "\u9065": 6898, "\u9068": 6899, "\u9069": 6900, "\u906d": 6901, "\u906e": 6902, "\u9072": 6903, "\u9074": 6904, "\u9075": 6905, "\u9076": 6906, "\u9077": 6907, "\u9078": 6908, "\u907a": 6909, "\u907c": 6910, "\u907d": 6911, "\u907f": 6912, "\u9080": 6913, "\u9081": 6914, "\u9082": 6915, "\u9083": 6916, "\u9084": 6917, "\u9087": 6918, "\u9088": 6919, "\u908a": 6920, "\u908b": 6921, "\u908f": 6922, "\u9091": 6923, "\u9093": 6924, "\u9095": 6925, "\u909b": 6926, "\u909d": 6927, "\u90a2": 6928, "\u90a3": 6929, "\u90a6": 6930, "\u90a8": 6931, "\u90aa": 6932, "\u90ac": 6933, "\u90ae": 6934, "\u90af": 6935, "\u90b0": 6936, "\u90b1": 6937, "\u90b3": 6938, "\u90b5": 6939, "\u90b8": 6940, "\u90b9": 6941, "\u90ba": 6942, "\u90bb": 6943, "\u90c1": 6944, "\u90c5": 6945, "\u90ca": 6946, "\u90ce": 6947, "\u90d1": 6948, "\u90dc": 6949, "\u90dd": 6950, "\u90e1": 6951, "\u90e2": 6952, "\u90e4": 6953, "\u90e6": 6954, "\u90e7": 6955, "\u90e8": 6956, "\u90eb": 6957, "\u90ed": 6958, "\u90f4": 6959, "\u90f5": 6960, "\u90f7": 6961, "\u90f8": 6962, "\u90fd": 6963, "\u9102": 6964, "\u9109": 6965, "\u9112": 6966, "\u9114": 6967, "\u9119": 6968, "\u911e": 6969, "\u9122": 6970, "\u9127": 6971, "\u912d": 6972, "\u9130": 6973, "\u9131": 6974, "\u9132": 6975, "\u913a": 6976, "\u9149": 6977, "\u914a": 6978, "\u914b": 6979, "\u914c": 6980, "\u914d": 6981, "\u9150": 6982, "\u9152": 6983, "\u9157": 6984, "\u915a": 6985, "\u915d": 6986, "\u9162": 6987, "\u9163": 6988, "\u9165": 6989, "\u9169": 6990, "\u916a": 6991, "\u916c": 6992, "\u916e": 6993, "\u916f": 6994, "\u9170": 6995, "\u9171": 6996, "\u9175": 6997, "\u9176": 6998, "\u9177": 6999, "\u9178": 7000, "\u917f": 7001, "\u9183": 7002, "\u9187": 7003, "\u9189": 7004, "\u918b": 7005, "\u918d": 7006, "\u9190": 7007, "\u9192": 7008, "\u919a": 7009, "\u919b": 7010, "\u919c": 7011, "\u919e": 7012, "\u91a3": 7013, "\u91aa": 7014, "\u91ab": 7015, "\u91ac": 7016, "\u91ae": 7017, "\u91af": 7018, "\u91b4": 7019, "\u91ba": 7020, "\u91c0": 7021, "\u91c1": 7022, "\u91c7": 7023, "\u91c9": 7024, "\u91ca": 7025, "\u91cb": 7026, "\u91cc": 7027, "\u91cd": 7028, "\u91ce": 7029, "\u91cf": 7030, "\u91d0": 7031, "\u91d1": 7032, "\u91d7": 7033, "\u91d8": 7034, "\u91dc": 7035, "\u91dd": 7036, "\u91e3": 7037, "\u91e6": 7038, "\u91e7": 7039, "\u91f5": 7040, "\u9200": 7041, "\u9209": 7042, "\u920d": 7043, "\u920e": 7044, "\u9214": 7045, "\u9215": 7046, "\u921e": 7047, "\u9223": 7048, "\u9226": 7049, "\u922a": 7050, "\u9234": 7051, "\u923a": 7052, "\u923e": 7053, "\u9240": 7054, "\u9244": 7055, "\u9245": 7056, "\u9249": 7057, "\u9251": 7058, "\u9257": 7059, "\u925a": 7060, "\u925b": 7061, "\u9264": 7062, "\u9274": 7063, "\u927b": 7064, "\u9280": 7065, "\u9283": 7066, "\u9285": 7067, "\u9291": 7068, "\u9293": 7069, "\u9296": 7070, "\u9298": 7071, "\u929c": 7072, "\u92ac": 7073, "\u92ad": 7074, "\u92ae": 7075, "\u92b3": 7076, "\u92b7": 7077, "\u92b9": 7078, "\u92c1": 7079, "\u92c5": 7080, "\u92d2": 7081, "\u92e4": 7082, "\u92ea": 7083, "\u92f0": 7084, "\u92f8": 7085, "\u92fc": 7086, "\u9304": 7087, "\u9310": 7088, "\u9318": 7089, "\u931a": 7090, "\u9320": 7091, "\u9322": 7092, "\u9326": 7093, "\u9328": 7094, "\u932b": 7095, "\u932e": 7096, "\u932f": 7097, "\u9332": 7098, "\u9333": 7099, "\u9336": 7100, "\u934a": 7101, "\u934b": 7102, "\u934d": 7103, "\u935b": 7104, "\u9365": 7105, "\u9370": 7106, "\u9375": 7107, "\u937a": 7108, "\u937e": 7109, "\u9382": 7110, "\u938a": 7111, "\u938c": 7112, "\u938f": 7113, "\u9394": 7114, "\u9396": 7115, "\u9397": 7116, "\u939a": 7117, "\u93a7": 7118, "\u93ac": 7119, "\u93ae": 7120, "\u93b3": 7121, "\u93c8": 7122, "\u93d6": 7123, "\u93d7": 7124, "\u93d8": 7125, "\u93de": 7126, "\u93df": 7127, "\u93e1": 7128, "\u93e2": 7129, "\u93e4": 7130, "\u93fd": 7131, "\u9418": 7132, "\u942e": 7133, "\u9432": 7134, "\u9433": 7135, "\u9435": 7136, "\u9438": 7137, "\u943a": 7138, "\u9444": 7139, "\u944a": 7140, "\u9451": 7141, "\u9452": 7142, "\u9463": 7143, "\u946b": 7144, "\u9470": 7145, "\u9472": 7146, "\u947c": 7147, "\u947d": 7148, "\u947e": 7149, "\u947f": 7150, "\u9488": 7151, "\u9489": 7152, "\u948a": 7153, "\u948e": 7154, "\u948f": 7155, "\u9492": 7156, "\u9493": 7157, "\u9497": 7158, "\u9499": 7159, "\u949b": 7160, "\u949c": 7161, "\u949d": 7162, "\u949e": 7163, "\u949f": 7164, "\u94a0": 7165, "\u94a1": 7166, "\u94a2": 7167, "\u94a3": 7168, "\u94a4": 7169, "\u94a5": 7170, "\u94a6": 7171, "\u94a7": 7172, "\u94a8": 7173, "\u94a9": 7174, "\u94ae": 7175, "\u94af": 7176, "\u94b0": 7177, "\u94b1": 7178, "\u94b3": 7179, "\u94b4": 7180, "\u94b5": 7181, "\u94ba": 7182, "\u94bb": 7183, "\u94bc": 7184, "\u94be": 7185, "\u94bf": 7186, "\u94c0": 7187, "\u94c1": 7188, "\u94c2": 7189, "\u94c3": 7190, "\u94c4": 7191, "\u94c5": 7192, "\u94c6": 7193, "\u94c9": 7194, "\u94ce": 7195, "\u94d0": 7196, "\u94db": 7197, "\u94dc": 7198, "\u94dd": 7199, "\u94e0": 7200, "\u94e1": 7201, "\u94e2": 7202, "\u94e3": 7203, "\u94e4": 7204, "\u94e8": 7205, "\u94e9": 7206, "\u94ec": 7207, "\u94ed": 7208, "\u94ee": 7209, "\u94f0": 7210, "\u94f2": 7211, "\u94f5": 7212, "\u94f6": 7213, "\u94f8": 7214, "\u94fa": 7215, "\u94fe": 7216, "\u94ff": 7217, "\u9500": 7218, "\u9501": 7219, "\u9502": 7220, "\u9504": 7221, "\u9505": 7222, "\u9506": 7223, "\u9508": 7224, "\u9509": 7225, "\u950b": 7226, "\u950c": 7227, "\u950f": 7228, "\u9510": 7229, "\u9511": 7230, "\u9519": 7231, "\u951a": 7232, "\u951f": 7233, "\u9521": 7234, "\u9522": 7235, "\u9523": 7236, "\u9524": 7237, "\u9525": 7238, "\u9526": 7239, "\u952d": 7240, "\u952e": 7241, "\u952f": 7242, "\u9530": 7243, "\u9532": 7244, "\u9535": 7245, "\u9539": 7246, "\u953a": 7247, "\u953b": 7248, "\u9540": 7249, "\u9541": 7250, "\u9542": 7251, "\u9547": 7252, "\u9549": 7253, "\u954c": 7254, "\u954d": 7255, "\u9550": 7256, "\u9551": 7257, "\u9555": 7258, "\u9556": 7259, "\u9557": 7260, "\u955b": 7261, "\u955c": 7262, "\u9563": 7263, "\u956d": 7264, "\u956f": 7265, "\u9570": 7266, "\u9573": 7267, "\u9576": 7268, "\u9577": 7269, "\u957f": 7270, "\u9580": 7271, "\u9583": 7272, "\u9589": 7273, "\u958b": 7274, "\u958e": 7275, "\u958f": 7276, "\u9591": 7277, "\u9592": 7278, "\u9593": 7279, "\u9594": 7280, "\u9598": 7281, "\u95a1": 7282, "\u95a2": 7283, "\u95a3": 7284, "\u95a5": 7285, "\u95a8": 7286, "\u95a9": 7287, "\u95b1": 7288, "\u95b2": 7289, "\u95b9": 7290, "\u95bb": 7291, "\u95be": 7292, "\u95c6": 7293, "\u95c7": 7294, "\u95ca": 7295, "\u95cc": 7296, "\u95cd": 7297, "\u95d4": 7298, "\u95d5": 7299, "\u95d6": 7300, "\u95d8": 7301, "\u95dc": 7302, "\u95e1": 7303, "\u95e2": 7304, "\u95e8": 7305, "\u95ea": 7306, "\u95eb": 7307, "\u95ed": 7308, "\u95ee": 7309, "\u95ef": 7310, "\u95f0": 7311, "\u95f2": 7312, "\u95f4": 7313, "\u95f5": 7314, "\u95f7": 7315, "\u95f8": 7316, "\u95f9": 7317, "\u95fa": 7318, "\u95fb": 7319, "\u95fd": 7320, "\u95fe": 7321, "\u9600": 7322, "\u9601": 7323, "\u9602": 7324, "\u9605": 7325, "\u9606": 7326, "\u9607": 7327, "\u9608": 7328, "\u9609": 7329, "\u960e": 7330, "\u9610": 7331, "\u9611": 7332, "\u9614": 7333, "\u9615": 7334, "\u9616": 7335, "\u9619": 7336, "\u961a": 7337, "\u961c": 7338, "\u961f": 7339, "\u9621": 7340, "\u962a": 7341, "\u962e": 7342, "\u9631": 7343, "\u9632": 7344, "\u9633": 7345, "\u9634": 7346, "\u9635": 7347, "\u9636": 7348, "\u963b": 7349, "\u963f": 7350, "\u9640": 7351, "\u9642": 7352, "\u9644": 7353, "\u9645": 7354, "\u9646": 7355, "\u9647": 7356, "\u9648": 7357, "\u964b": 7358, "\u964c": 7359, "\u964d": 7360, "\u9650": 7361, "\u9655": 7362, "\u965b": 7363, "\u965d": 7364, "\u965e": 7365, "\u965f": 7366, "\u9661": 7367, "\u9662": 7368, "\u9663": 7369, "\u9664": 7370, "\u9668": 7371, "\u9669": 7372, "\u966a": 7373, "\u9670": 7374, "\u9672": 7375, "\u9673": 7376, "\u9675": 7377, "\u9676": 7378, "\u9677": 7379, "\u9678": 7380, "\u967a": 7381, "\u967d": 7382, "\u9685": 7383, "\u9686": 7384, "\u9688": 7385, "\u968a": 7386, "\u968b": 7387, "\u968d": 7388, "\u968e": 7389, "\u968f": 7390, "\u9690": 7391, "\u9694": 7392, "\u9695": 7393, "\u9698": 7394, "\u9699": 7395, "\u969b": 7396, "\u969c": 7397, "\u96a0": 7398, "\u96a3": 7399, "\u96a7": 7400, "\u96a8": 7401, "\u96aa": 7402, "\u96b1": 7403, "\u96b4": 7404, "\u96b6": 7405, "\u96b8": 7406, "\u96bb": 7407, "\u96bc": 7408, "\u96bd": 7409, "\u96be": 7410, "\u96c0": 7411, "\u96c1": 7412, "\u96c4": 7413, "\u96c5": 7414, "\u96c6": 7415, "\u96c7": 7416, "\u96c9": 7417, "\u96cb": 7418, "\u96cc": 7419, "\u96cd": 7420, "\u96ce": 7421, "\u96cf": 7422, "\u96d1": 7423, "\u96d2": 7424, "\u96d5": 7425, "\u96d6": 7426, "\u96d9": 7427, "\u96db": 7428, "\u96dc": 7429, "\u96de": 7430, "\u96e2": 7431, "\u96e3": 7432, "\u96e8": 7433, "\u96ea": 7434, "\u96ef": 7435, "\u96f0": 7436, "\u96f2": 7437, "\u96f3": 7438, "\u96f6": 7439, "\u96f7": 7440, "\u96f9": 7441, "\u96fb": 7442, "\u96fe": 7443, "\u9700": 7444, "\u9701": 7445, "\u9704": 7446, "\u9706": 7447, "\u9707": 7448, "\u9708": 7449, "\u9709": 7450, "\u970a": 7451, "\u970d": 7452, "\u970e": 7453, "\u970f": 7454, "\u9711": 7455, "\u9713": 7456, "\u9716": 7457, "\u971c": 7458, "\u971e": 7459, "\u9727": 7460, "\u972d": 7461, "\u9730": 7462, "\u9732": 7463, "\u9738": 7464, "\u9739": 7465, "\u973d": 7466, "\u973e": 7467, "\u9742": 7468, "\u9744": 7469, "\u9748": 7470, "\u9752": 7471, "\u9753": 7472, "\u9756": 7473, "\u9759": 7474, "\u975a": 7475, "\u975b": 7476, "\u975c": 7477, "\u975e": 7478, "\u9760": 7479, "\u9761": 7480, "\u9762": 7481, "\u9765": 7482, "\u9766": 7483, "\u9769": 7484, "\u9773": 7485, "\u9774": 7486, "\u9776": 7487, "\u977c": 7488, "\u9785": 7489, "\u978b": 7490, "\u978d": 7491, "\u978f": 7492, "\u9791": 7493, "\u9798": 7494, "\u97a0": 7495, "\u97a3": 7496, "\u97a6": 7497, "\u97ad": 7498, "\u97c6": 7499, "\u97cb": 7500, "\u97cc": 7501, "\u97d3": 7502, "\u97dc": 7503, "\u97e6": 7504, "\u97e7": 7505, "\u97e9": 7506, "\u97ec": 7507, "\u97ed": 7508, "\u97f3": 7509, "\u97f5": 7510, "\u97f6": 7511, "\u97fb": 7512, "\u97ff": 7513, "\u9801": 7514, "\u9802": 7515, "\u9803": 7516, "\u9805": 7517, "\u9806": 7518, "\u9808": 7519, "\u980c": 7520, "\u9810": 7521, "\u9811": 7522, "\u9812": 7523, "\u9813": 7524, "\u9817": 7525, "\u9818": 7526, "\u981c": 7527, "\u9821": 7528, "\u9824": 7529, "\u982b": 7530, "\u982d": 7531, "\u9830": 7532, "\u9837": 7533, "\u9838": 7534, "\u9839": 7535, "\u983b": 7536, "\u983c": 7537, "\u9846": 7538, "\u984c": 7539, "\u984d": 7540, "\u984e": 7541, "\u984f": 7542, "\u9854": 7543, "\u9858": 7544, "\u985b": 7545, "\u985e": 7546, "\u9867": 7547, "\u986b": 7548, "\u986f": 7549, "\u9871": 7550, "\u9874": 7551, "\u9875": 7552, "\u9876": 7553, "\u9877": 7554, "\u9879": 7555, "\u987a": 7556, "\u987b": 7557, "\u987c": 7558, "\u987d": 7559, "\u987e": 7560, "\u987f": 7561, "\u9881": 7562, "\u9882": 7563, "\u9884": 7564, "\u9885": 7565, "\u9886": 7566, "\u9887": 7567, "\u9888": 7568, "\u9889": 7569, "\u988a": 7570, "\u988c": 7571, "\u988d": 7572, "\u9890": 7573, "\u9891": 7574, "\u9893": 7575, "\u9894": 7576, "\u9896": 7577, "\u9897": 7578, "\u9898": 7579, "\u989a": 7580, "\u989b": 7581, "\u989c": 7582, "\u989d": 7583, "\u989e": 7584, "\u98a0": 7585, "\u98a1": 7586, "\u98a2": 7587, "\u98a4": 7588, "\u98a6": 7589, "\u98a7": 7590, "\u98a8": 7591, "\u98af": 7592, "\u98b1": 7593, "\u98b3": 7594, "\u98b6": 7595, "\u98bc": 7596, "\u98c4": 7597, "\u98c6": 7598, "\u98ce": 7599, "\u98d2": 7600, "\u98d3": 7601, "\u98d5": 7602, "\u98d8": 7603, "\u98d9": 7604, "\u98da": 7605, "\u98db": 7606, "\u98de": 7607, "\u98df": 7608, "\u98e2": 7609, "\u98e8": 7610, "\u98e9": 7611, "\u98ea": 7612, "\u98ef": 7613, "\u98f2": 7614, "\u98fc": 7615, "\u98fd": 7616, "\u98fe": 7617, "\u9903": 7618, "\u9905": 7619, "\u9909": 7620, "\u990a": 7621, "\u990c": 7622, "\u9910": 7623, "\u9912": 7624, "\u9913": 7625, "\u9918": 7626, "\u991a": 7627, "\u991b": 7628, "\u991e": 7629, "\u9921": 7630, "\u9928": 7631, "\u992e": 7632, "\u9935": 7633, "\u993e": 7634, "\u9945": 7635, "\u9948": 7636, "\u994b": 7637, "\u994c": 7638, "\u994d": 7639, "\u9951": 7640, "\u9952": 7641, "\u9955": 7642, "\u9957": 7643, "\u995e": 7644, "\u9965": 7645, "\u9968": 7646, "\u996a": 7647, "\u996c": 7648, "\u996d": 7649, "\u996e": 7650, "\u996f": 7651, "\u9970": 7652, "\u9971": 7653, "\u9972": 7654, "\u9974": 7655, "\u9975": 7656, "\u9976": 7657, "\u9977": 7658, "\u997a": 7659, "\u997c": 7660, "\u997d": 7661, "\u997f": 7662, "\u9980": 7663, "\u9981": 7664, "\u9984": 7665, "\u9985": 7666, "\u9986": 7667, "\u9988": 7668, "\u998b": 7669, "\u998d": 7670, "\u998f": 7671, "\u9992": 7672, "\u9994": 7673, "\u9996": 7674, "\u9997": 7675, "\u9999": 7676, "\u99a5": 7677, "\u99a8": 7678, "\u99ac": 7679, "\u99ad": 7680, "\u99ae": 7681, "\u99b3": 7682, "\u99b4": 7683, "\u99c1": 7684, "\u99c4": 7685, "\u99c5": 7686, "\u99c6": 7687, "\u99d0": 7688, "\u99d2": 7689, "\u99d5": 7690, "\u99db": 7691, "\u99dd": 7692, "\u99ed": 7693, "\u99f1": 7694, "\u99ff": 7695, "\u9a01": 7696, "\u9a0e": 7697, "\u9a0f": 7698, "\u9a13": 7699, "\u9a19": 7700, "\u9a28": 7701, "\u9a30": 7702, "\u9a37": 7703, "\u9a40": 7704, "\u9a45": 7705, "\u9a4a": 7706, "\u9a4d": 7707, "\u9a52": 7708, "\u9a55": 7709, "\u9a57": 7710, "\u9a5a": 7711, "\u9a5b": 7712, "\u9a5f": 7713, "\u9a62": 7714, "\u9a65": 7715, "\u9a6c": 7716, "\u9a6d": 7717, "\u9a6e": 7718, "\u9a6f": 7719, "\u9a70": 7720, "\u9a71": 7721, "\u9a73": 7722, "\u9a74": 7723, "\u9a76": 7724, "\u9a77": 7725, "\u9a78": 7726, "\u9a79": 7727, "\u9a7b": 7728, "\u9a7c": 7729, "\u9a7e": 7730, "\u9a7f": 7731, "\u9a81": 7732, "\u9a82": 7733, "\u9a84": 7734, "\u9a85": 7735, "\u9a86": 7736, "\u9a87": 7737, "\u9a88": 7738, "\u9a8a": 7739, "\u9a8b": 7740, "\u9a8c": 7741, "\u9a8f": 7742, "\u9a90": 7743, "\u9a91": 7744, "\u9a97": 7745, "\u9a9a": 7746, "\u9a9b": 7747, "\u9a9c": 7748, "\u9a9e": 7749, "\u9aa0": 7750, "\u9aa1": 7751, "\u9aa4": 7752, "\u9aa5": 7753, "\u9aa7": 7754, "\u9aa8": 7755, "\u9aaf": 7756, "\u9ab0": 7757, "\u9ab6": 7758, "\u9ab7": 7759, "\u9ab8": 7760, "\u9abc": 7761, "\u9ac2": 7762, "\u9ac5": 7763, "\u9acb": 7764, "\u9acf": 7765, "\u9ad2": 7766, "\u9ad3": 7767, "\u9ad4": 7768, "\u9ad6": 7769, "\u9ad8": 7770, "\u9ae6": 7771, "\u9aea": 7772, "\u9aee": 7773, "\u9aef": 7774, "\u9afb": 7775, "\u9b03": 7776, "\u9b06": 7777, "\u9b0d": 7778, "\u9b13": 7779, "\u9b1a": 7780, "\u9b1f": 7781, "\u9b22": 7782, "\u9b23": 7783, "\u9b25": 7784, "\u9b27": 7785, "\u9b31": 7786, "\u9b3c": 7787, "\u9b41": 7788, "\u9b42": 7789, "\u9b44": 7790, "\u9b45": 7791, "\u9b47": 7792, "\u9b4d": 7793, "\u9b4f": 7794, "\u9b54": 7795, "\u9b58": 7796, "\u9b5a": 7797, "\u9b6f": 7798, "\u9b77": 7799, "\u9b91": 7800, "\u9ba8": 7801, "\u9baa": 7802, "\u9bad": 7803, "\u9bae": 7804, "\u9bc9": 7805, "\u9bca": 7806, "\u9bd6": 7807, "\u9bdb": 7808, "\u9be8": 7809, "\u9bf0": 7810, "\u9bfd": 7811, "\u9c0d": 7812, "\u9c13": 7813, "\u9c2d": 7814, "\u9c32": 7815, "\u9c3b": 7816, "\u9c3e": 7817, "\u9c48": 7818, "\u9c49": 7819, "\u9c54": 7820, "\u9c57": 7821, "\u9c77": 7822, "\u9c78": 7823, "\u9c7c": 7824, "\u9c7f": 7825, "\u9c81": 7826, "\u9c88": 7827, "\u9c8d": 7828, "\u9c91": 7829, "\u9c9b": 7830, "\u9c9c": 7831, "\u9c9f": 7832, "\u9ca2": 7833, "\u9ca4": 7834, "\u9ca8": 7835, "\u9cab": 7836, "\u9cb1": 7837, "\u9cb2": 7838, "\u9cb6": 7839, "\u9cb7": 7840, "\u9cb8": 7841, "\u9cc3": 7842, "\u9cc4": 7843, "\u9cc5": 7844, "\u9ccc": 7845, "\u9ccd": 7846, "\u9cd5": 7847, "\u9cd6": 7848, "\u9cd7": 7849, "\u9cdd": 7850, "\u9cde": 7851, "\u9ce5": 7852, "\u9ce9": 7853, "\u9cf3": 7854, "\u9cf4": 7855, "\u9cf6": 7856, "\u9d09": 7857, "\u9d15": 7858, "\u9d1b": 7859, "\u9d26": 7860, "\u9d28": 7861, "\u9d3b": 7862, "\u9d3f": 7863, "\u9d51": 7864, "\u9d5c": 7865, "\u9d5d": 7866, "\u9d61": 7867, "\u9d6c": 7868, "\u9d70": 7869, "\u9d72": 7870, "\u9d98": 7871, "\u9da9": 7872, "\u9daf": 7873, "\u9db4": 7874, "\u9dd7": 7875, "\u9df2": 7876, "\u9df9": 7877, "\u9dfa": 7878, "\u9e1a": 7879, "\u9e1e": 7880, "\u9e1f": 7881, "\u9e20": 7882, "\u9e21": 7883, "\u9e22": 7884, "\u9e23": 7885, "\u9e25": 7886, "\u9e26": 7887, "\u9e28": 7888, "\u9e2a": 7889, "\u9e2d": 7890, "\u9e2f": 7891, "\u9e33": 7892, "\u9e35": 7893, "\u9e3d": 7894, "\u9e3e": 7895, "\u9e3f": 7896, "\u9e42": 7897, "\u9e43": 7898, "\u9e44": 7899, "\u9e45": 7900, "\u9e48": 7901, "\u9e49": 7902, "\u9e4a": 7903, "\u9e4c": 7904, "\u9e4f": 7905, "\u9e51": 7906, "\u9e55": 7907, "\u9e58": 7908, "\u9e5c": 7909, "\u9e5e": 7910, "\u9e64": 7911, "\u9e66": 7912, "\u9e67": 7913, "\u9e6b": 7914, "\u9e6d": 7915, "\u9e70": 7916, "\u9e73": 7917, "\u9e75": 7918, "\u9e79": 7919, "\u9e7c": 7920, "\u9e7d": 7921, "\u9e7f": 7922, "\u9e82": 7923, "\u9e8b": 7924, "\u9e92": 7925, "\u9e93": 7926, "\u9e97": 7927, "\u9e9d": 7928, "\u9e9f": 7929, "\u9ea5": 7930, "\u9ea6": 7931, "\u9ea9": 7932, "\u9eb4": 7933, "\u9eb5": 7934, "\u9eb8": 7935, "\u9eba": 7936, "\u9ebb": 7937, "\u9ebc": 7938, "\u9ebd": 7939, "\u9ebe": 7940, "\u9ec3": 7941, "\u9ec4": 7942, "\u9ecd": 7943, "\u9ece": 7944, "\u9ecf": 7945, "\u9ed1": 7946, "\u9ed2": 7947, "\u9ed4": 7948, "\u9ed8": 7949, "\u9edb": 7950, "\u9edc": 7951, "\u9edd": 7952, "\u9ede": 7953, "\u9ee0": 7954, "\u9ee8": 7955, "\u9eef": 7956, "\u9ef4": 7957, "\u9f0b": 7958, "\u9f0e": 7959, "\u9f10": 7960, "\u9f13": 7961, "\u9f20": 7962, "\u9f2c": 7963, "\u9f39": 7964, "\u9f3b": 7965, "\u9f3e": 7966, "\u9f41": 7967, "\u9f4a": 7968, "\u9f4b": 7969, "\u9f50": 7970, "\u9f52": 7971, "\u9f61": 7972, "\u9f62": 7973, "\u9f63": 7974, "\u9f66": 7975, "\u9f7f": 7976, "\u9f84": 7977, "\u9f85": 7978, "\u9f88": 7979, "\u9f8a": 7980, "\u9f8b": 7981, "\u9f8c": 7982, "\u9f8d": 7983, "\u9f90": 7984, "\u9f94": 7985, "\u9f95": 7986, "\u9f99": 7987, "\u9f9a": 7988, "\u9f9b": 7989, "\u9f9c": 7990, "\u9f9f": 7991, "\ufe30": 7992, "\ufe31": 7993, "\ufe36": 7994, "\ufe3f": 7995, "\ufe41": 7996, "\ufe42": 7997, "\ufe4d": 7998, "\ufe4f": 7999, "\ufe50": 8000, "\ufe51": 8001, "\ufe52": 8002, "\ufe54": 8003, "\ufe55": 8004, "\ufe56": 8005, "\ufe57": 8006, "\ufe59": 8007, "\ufe5a": 8008, "\ufe5d": 8009, "\ufe5e": 8010, "\ufe61": 8011, "\ufe63": 8012, "\uff01": 8013, "\uff02": 8014, "\uff03": 8015, "\uff04": 8016, "\uff05": 8017, "\uff06": 8018, "\uff07": 8019, "\uff08": 8020, "\uff09": 8021, "\uff0a": 8022, "\uff0b": 8023, "\uff0c": 8024, "\uff0d": 8025, "\uff0e": 8026, "\uff0f": 8027, "\uff10": 8028, "\uff11": 8029, "\uff12": 8030, "\uff13": 8031, "\uff14": 8032, "\uff15": 8033, "\uff16": 8034, "\uff17": 8035, "\uff18": 8036, "\uff19": 8037, "\uff1a": 8038, "\uff1b": 8039, "\uff1c": 8040, "\uff1d": 8041, "\uff1e": 8042, "\uff1f": 8043, "\uff20": 8044, "\uff3b": 8045, "\uff3c": 8046, "\uff3d": 8047, "\uff3e": 8048, "\uff3f": 8049, "\uff40": 8050, "\uff41": 8051, "\uff42": 8052, "\uff43": 8053, "\uff44": 8054, "\uff45": 8055, "\uff46": 8056, "\uff47": 8057, "\uff48": 8058, "\uff49": 8059, "\uff4a": 8060, "\uff4b": 8061, "\uff4c": 8062, "\uff4d": 8063, "\uff4e": 8064, "\uff4f": 8065, "\uff50": 8066, "\uff51": 8067, "\uff52": 8068, "\uff53": 8069, "\uff54": 8070, "\uff55": 8071, "\uff56": 8072, "\uff57": 8073, "\uff58": 8074, "\uff59": 8075, "\uff5a": 8076, "\uff5b": 8077, "\uff5c": 8078, "\uff5d": 8079, "\uff5e": 8080, "\uff61": 8081, "\uff62": 8082, "\uff63": 8083, "\uff64": 8084, "\uff65": 8085, "\uff6f": 8086, "\uff70": 8087, "\uff72": 8088, "\uff78": 8089, "\uff7c": 8090, "\uff7d": 8091, "\uff84": 8092, "\uff89": 8093, "\uff8c": 8094, "\uff97": 8095, "\uff99": 8096, "\uff9d": 8097, "\uff9e": 8098, "\uff9f": 8099, "\uffe3": 8100, "\uffe5": 8101, "\ud83d\udc4d": 8102, "\ud83d\udd25": 8103, "\ud83d\ude02": 8104, "\ud83d\ude0e": 8105, "...": 8106, "yam": 8107, "10": 8108, "2017": 8109, "12": 8110, "11": 8111, "2016": 8112, "20": 8113, "30": 8114, "15": 8115, "06": 8116, "lofter": 8117, "##s": 8118, "2015": 8119, "by": 8120, "16": 8121, "14": 8122, "18": 8123, "13": 8124, "24": 8125, "17": 8126, "2014": 8127, "21": 8128, "##0": 8129, "22": 8130, "19": 8131, "25": 8132, "23": 8133, "com": 8134, "100": 8135, "00": 8136, "05": 8137, "2013": 8138, "##a": 8139, "03": 8140, "09": 8141, "08": 8142, "28": 8143, "##2": 8144, "50": 8145, "01": 8146, "04": 8147, "##1": 8148, "27": 8149, "02": 8150, "2012": 8151, "##3": 8152, "26": 8153, "##e": 8154, "07": 8155, "##8": 8156, "##5": 8157, "##6": 8158, "##4": 8159, "##9": 8160, "##7": 8161, "29": 8162, "2011": 8163, "40": 8164, "##t": 8165, "2010": 8166, "##o": 8167, "##d": 8168, "##i": 8169, "2009": 8170, "##n": 8171, "app": 8172, "www": 8173, "the": 8174, "##m": 8175, "31": 8176, "##c": 8177, "##l": 8178, "##y": 8179, "##r": 8180, "##g": 8181, "2008": 8182, "60": 8183, "http": 8184, "200": 8185, "qq": 8186, "##p": 8187, "80": 8188, "##f": 8189, "google": 8190, "pixnet": 8191, "90": 8192, "cookies": 8193, "tripadvisor": 8194, "500": 8195, "##er": 8196, "##k": 8197, "35": 8198, "##h": 8199, "facebook": 8200, "2007": 8201, "2000": 8202, "70": 8203, "##b": 8204, "of": 8205, "##x": 8206, "##u": 8207, "45": 8208, "300": 8209, "iphone": 8210, "32": 8211, "1000": 8212, "2006": 8213, "48": 8214, "ip": 8215, "36": 8216, "in": 8217, "38": 8218, "3d": 8219, "##w": 8220, "##ing": 8221, "55": 8222, "ctrip": 8223, "##on": 8224, "##v": 8225, "33": 8226, "##\u306e": 8227, "to": 8228, "34": 8229, "400": 8230, "id": 8231, "2005": 8232, "it": 8233, "37": 8234, "windows": 8235, "llc": 8236, "top": 8237, "99": 8238, "42": 8239, "39": 8240, "000": 8241, "led": 8242, "at": 8243, "##an": 8244, "41": 8245, "51": 8246, "52": 8247, "46": 8248, "49": 8249, "43": 8250, "53": 8251, "44": 8252, "##z": 8253, "android": 8254, "58": 8255, "and": 8256, "59": 8257, "2004": 8258, "56": 8259, "vr": 8260, "##\u304b": 8261, "5000": 8262, "2003": 8263, "47": 8264, "blogthis": 8265, "twitter": 8266, "54": 8267, "##le": 8268, "150": 8269, "ok": 8270, "2018": 8271, "57": 8272, "75": 8273, "cn": 8274, "no": 8275, "ios": 8276, "##in": 8277, "##mm": 8278, "##00": 8279, "800": 8280, "on": 8281, "te": 8282, "3000": 8283, "65": 8284, "2001": 8285, "360": 8286, "95": 8287, "ig": 8288, "lv": 8289, "120": 8290, "##ng": 8291, "##\u3092": 8292, "##us": 8293, "##\u306b": 8294, "pc": 8295, "\u3066\u3059": 8296, "\u2500\u2500": 8297, "600": 8298, "##te": 8299, "85": 8300, "2002": 8301, "88": 8302, "##ed": 8303, "html": 8304, "ncc": 8305, "wifi": 8306, "email": 8307, "64": 8308, "blog": 8309, "is": 8310, "##10": 8311, "##\u3066": 8312, "mail": 8313, "online": 8314, "##al": 8315, "dvd": 8316, "##ic": 8317, "studio": 8318, "##\u306f": 8319, "##\u2103": 8320, "##ia": 8321, "##\u3068": 8322, "line": 8323, "vip": 8324, "72": 8325, "##q": 8326, "98": 8327, "##ce": 8328, "##en": 8329, "for": 8330, "##is": 8331, "##ra": 8332, "##es": 8333, "##j": 8334, "usb": 8335, "net": 8336, "cp": 8337, "1999": 8338, "asia": 8339, "4g": 8340, "##cm": 8341, "diy": 8342, "new": 8343, "3c": 8344, "##\u304a": 8345, "ta": 8346, "66": 8347, "language": 8348, "vs": 8349, "apple": 8350, "tw": 8351, "86": 8352, "web": 8353, "##ne": 8354, "ipad": 8355, "62": 8356, "you": 8357, "##re": 8358, "101": 8359, "68": 8360, "##tion": 8361, "ps": 8362, "de": 8363, "bt": 8364, "pony": 8365, "atm": 8366, "##2017": 8367, "1998": 8368, "67": 8369, "##ch": 8370, "ceo": 8371, "##or": 8372, "go": 8373, "##na": 8374, "av": 8375, "pro": 8376, "cafe": 8377, "96": 8378, "pinterest": 8379, "97": 8380, "63": 8381, "pixstyleme3c": 8382, "##ta": 8383, "more": 8384, "said": 8385, "##2016": 8386, "1997": 8387, "mp3": 8388, "700": 8389, "##ll": 8390, "nba": 8391, "jun": 8392, "##20": 8393, "92": 8394, "tv": 8395, "1995": 8396, "pm": 8397, "61": 8398, "76": 8399, "nbsp": 8400, "250": 8401, "##ie": 8402, "linux": 8403, "##ma": 8404, "cd": 8405, "110": 8406, "hd": 8407, "##17": 8408, "78": 8409, "##ion": 8410, "77": 8411, "6000": 8412, "am": 8413, "##th": 8414, "##st": 8415, "94": 8416, "##se": 8417, "##et": 8418, "69": 8419, "180": 8420, "gdp": 8421, "my": 8422, "105": 8423, "81": 8424, "abc": 8425, "89": 8426, "flash": 8427, "79": 8428, "one": 8429, "93": 8430, "1990": 8431, "1996": 8432, "##ck": 8433, "gps": 8434, "##\u3082": 8435, "##ly": 8436, "web885": 8437, "106": 8438, "2020": 8439, "91": 8440, "##ge": 8441, "4000": 8442, "1500": 8443, "xd": 8444, "boss": 8445, "isbn": 8446, "1994": 8447, "org": 8448, "##ry": 8449, "me": 8450, "love": 8451, "##11": 8452, "0fork": 8453, "73": 8454, "##12": 8455, "3g": 8456, "##ter": 8457, "##ar": 8458, "71": 8459, "82": 8460, "##la": 8461, "hotel": 8462, "130": 8463, "1970": 8464, "pk": 8465, "83": 8466, "87": 8467, "140": 8468, "ie": 8469, "##os": 8470, "##30": 8471, "##el": 8472, "74": 8473, "##50": 8474, "seo": 8475, "cpu": 8476, "##ml": 8477, "p2p": 8478, "84": 8479, "may": 8480, "##\u308b": 8481, "sun": 8482, "tue": 8483, "internet": 8484, "cc": 8485, "posted": 8486, "youtube": 8487, "##at": 8488, "##\u30f3": 8489, "##man": 8490, "ii": 8491, "##\u30eb": 8492, "##15": 8493, "abs": 8494, "nt": 8495, "pdf": 8496, "yahoo": 8497, "ago": 8498, "1980": 8499, "##it": 8500, "news": 8501, "mac": 8502, "104": 8503, "##\u3066\u3059": 8504, "##me": 8505, "##\u308a": 8506, "java": 8507, "1992": 8508, "spa": 8509, "##de": 8510, "##nt": 8511, "hk": 8512, "all": 8513, "plus": 8514, "la": 8515, "1993": 8516, "##mb": 8517, "##16": 8518, "##ve": 8519, "west": 8520, "##da": 8521, "160": 8522, "air": 8523, "##\u3044": 8524, "##ps": 8525, "\u304b\u3089": 8526, "##to": 8527, "1989": 8528, "logo": 8529, "htc": 8530, "php": 8531, "https": 8532, "fi": 8533, "momo": 8534, "##son": 8535, "sat": 8536, "##ke": 8537, "##80": 8538, "ebd": 8539, "suv": 8540, "wi": 8541, "day": 8542, "apk": 8543, "##88": 8544, "##um": 8545, "mv": 8546, "galaxy": 8547, "wiki": 8548, "or": 8549, "brake": 8550, "##\u30b9": 8551, "1200": 8552, "\u3059\u308b": 8553, "this": 8554, "1991": 8555, "mon": 8556, "##\u3053": 8557, "\u27642017": 8558, "po": 8559, "##\u306a\u3044": 8560, "javascript": 8561, "life": 8562, "home": 8563, "june": 8564, "##ss": 8565, "system": 8566, "900": 8567, "##\u30fc": 8568, "##\uff10": 8569, "pp": 8570, "1988": 8571, "world": 8572, "fb": 8573, "4k": 8574, "br": 8575, "##as": 8576, "ic": 8577, "ai": 8578, "leonardo": 8579, "safari": 8580, "##60": 8581, "live": 8582, "free": 8583, "xx": 8584, "wed": 8585, "win7": 8586, "kiehl": 8587, "##co": 8588, "lg": 8589, "o2o": 8590, "##go": 8591, "us": 8592, "235": 8593, "1949": 8594, "mm": 8595, "\u3057\u3044": 8596, "vfm": 8597, "kanye": 8598, "##90": 8599, "##2015": 8600, "##id": 8601, "jr": 8602, "##ey": 8603, "123": 8604, "rss": 8605, "##sa": 8606, "##ro": 8607, "##am": 8608, "##no": 8609, "thu": 8610, "fri": 8611, "350": 8612, "##sh": 8613, "##ki": 8614, "103": 8615, "comments": 8616, "name": 8617, "##\u306e\u3066": 8618, "##pe": 8619, "##ine": 8620, "max": 8621, "1987": 8622, "8000": 8623, "uber": 8624, "##mi": 8625, "##ton": 8626, "wordpress": 8627, "office": 8628, "1986": 8629, "1985": 8630, "##ment": 8631, "107": 8632, "bd": 8633, "win10": 8634, "##ld": 8635, "##li": 8636, "gmail": 8637, "bb": 8638, "dior": 8639, "##rs": 8640, "##ri": 8641, "##rd": 8642, "##\u307e\u3059": 8643, "up": 8644, "cad": 8645, "##\u00ae": 8646, "dr": 8647, "\u3057\u3066": 8648, "read": 8649, "##21": 8650, "\u3092\u304a": 8651, "##io": 8652, "##99": 8653, "url": 8654, "1984": 8655, "pvc": 8656, "paypal": 8657, "show": 8658, "policy": 8659, "##40": 8660, "##ty": 8661, "##18": 8662, "with": 8663, "##\u2605": 8664, "##01": 8665, "txt": 8666, "102": 8667, "##ba": 8668, "dna": 8669, "from": 8670, "post": 8671, "mini": 8672, "ar": 8673, "taiwan": 8674, "john": 8675, "##ga": 8676, "privacy": 8677, "agoda": 8678, "##13": 8679, "##ny": 8680, "word": 8681, "##24": 8682, "##22": 8683, "##by": 8684, "##ur": 8685, "##hz": 8686, "1982": 8687, "##ang": 8688, "265": 8689, "cookie": 8690, "netscape": 8691, "108": 8692, "##ka": 8693, "##\uff5e": 8694, "##ad": 8695, "house": 8696, "share": 8697, "note": 8698, "ibm": 8699, "code": 8700, "hello": 8701, "nike": 8702, "sim": 8703, "survey": 8704, "##016": 8705, "1979": 8706, "1950": 8707, "wikia": 8708, "##32": 8709, "##017": 8710, "5g": 8711, "cbc": 8712, "##tor": 8713, "##kg": 8714, "1983": 8715, "##rt": 8716, "##14": 8717, "campaign": 8718, "store": 8719, "2500": 8720, "os": 8721, "##ct": 8722, "##ts": 8723, "##\u00b0": 8724, "170": 8725, "api": 8726, "##ns": 8727, "365": 8728, "excel": 8729, "##\u306a": 8730, "##ao": 8731, "##\u3089": 8732, "##\u3057": 8733, "\uff5e\uff5e": 8734, "##nd": 8735, "university": 8736, "163": 8737, "\u306b\u306f": 8738, "518": 8739, "##70": 8740, "##ya": 8741, "##il": 8742, "##25": 8743, "pierre": 8744, "ipo": 8745, "0020": 8746, "897": 8747, "##23": 8748, "hotels": 8749, "##ian": 8750, "\u306e\u304a": 8751, "125": 8752, "years": 8753, "6606": 8754, "##ers": 8755, "##26": 8756, "high": 8757, "##day": 8758, "time": 8759, "##ay": 8760, "bug": 8761, "##line": 8762, "##\u304f": 8763, "##\u3059": 8764, "##be": 8765, "xp": 8766, "talk2yam": 8767, "yamservice": 8768, "10000": 8769, "coco": 8770, "##dy": 8771, "sony": 8772, "##ies": 8773, "1978": 8774, "microsoft": 8775, "david": 8776, "people": 8777, "##ha": 8778, "1960": 8779, "instagram": 8780, "intel": 8781, "\u305d\u306e": 8782, "##ot": 8783, "iso": 8784, "1981": 8785, "##va": 8786, "115": 8787, "##mo": 8788, "##land": 8789, "xxx": 8790, "man": 8791, "co": 8792, "ltxsw": 8793, "##ation": 8794, "baby": 8795, "220": 8796, "##pa": 8797, "##ol": 8798, "1945": 8799, "7000": 8800, "tag": 8801, "450": 8802, "##ue": 8803, "msn": 8804, "##31": 8805, "oppo": 8806, "##\u30c8": 8807, "##ca": 8808, "control": 8809, "##om": 8810, "st": 8811, "chrome": 8812, "##ure": 8813, "##\u3093": 8814, "be": 8815, "##\u304d": 8816, "lol": 8817, "##19": 8818, "\u3057\u305f": 8819, "##bo": 8820, "240": 8821, "lady": 8822, "##100": 8823, "##way": 8824, "##\u304b\u3089": 8825, "4600": 8826, "##ko": 8827, "##do": 8828, "##un": 8829, "4s": 8830, "corporation": 8831, "168": 8832, "##ni": 8833, "herme": 8834, "##28": 8835, "\uff43\uff50": 8836, "978": 8837, "##up": 8838, "##06": 8839, "ui": 8840, "##ds": 8841, "ppt": 8842, "admin": 8843, "three": 8844, "\u3057\u307e\u3059": 8845, "bbc": 8846, "re": 8847, "128": 8848, "##48": 8849, "ca": 8850, "##015": 8851, "##35": 8852, "hp": 8853, "##ee": 8854, "tpp": 8855, "##\u305f": 8856, "##ive": 8857, "\u00d7\u00d7": 8858, "root": 8859, "##cc": 8860, "##\u307e\u3057\u305f": 8861, "##ble": 8862, "##ity": 8863, "adobe": 8864, "park": 8865, "114": 8866, "et": 8867, "oled": 8868, "city": 8869, "##ex": 8870, "##ler": 8871, "##ap": 8872, "china": 8873, "##book": 8874, "20000": 8875, "view": 8876, "##ice": 8877, "global": 8878, "##km": 8879, "your": 8880, "hong": 8881, "##mg": 8882, "out": 8883, "##ms": 8884, "ng": 8885, "ebay": 8886, "##29": 8887, "menu": 8888, "ubuntu": 8889, "##cy": 8890, "rom": 8891, "##view": 8892, "open": 8893, "ktv": 8894, "do": 8895, "server": 8896, "##lo": 8897, "if": 8898, "english": 8899, "##\u306d": 8900, "##\uff15": 8901, "##oo": 8902, "1600": 8903, "##02": 8904, "step1": 8905, "kong": 8906, "club": 8907, "135": 8908, "july": 8909, "inc": 8910, "1976": 8911, "mr": 8912, "hi": 8913, "##net": 8914, "touch": 8915, "##ls": 8916, "##ii": 8917, "michael": 8918, "lcd": 8919, "##05": 8920, "##33": 8921, "phone": 8922, "james": 8923, "step2": 8924, "1300": 8925, "ios9": 8926, "##box": 8927, "dc": 8928, "##\uff12": 8929, "##ley": 8930, "samsung": 8931, "111": 8932, "280": 8933, "pokemon": 8934, "css": 8935, "##ent": 8936, "##les": 8937, "\u3044\u3044\u3048": 8938, "##\uff11": 8939, "s8": 8940, "atom": 8941, "play": 8942, "bmw": 8943, "##said": 8944, "sa": 8945, "etf": 8946, "ctrl": 8947, "\u2665yoyo\u2665": 8948, "##55": 8949, "2025": 8950, "##2014": 8951, "##66": 8952, "adidas": 8953, "amazon": 8954, "1958": 8955, "##ber": 8956, "##ner": 8957, "visa": 8958, "##77": 8959, "##der": 8960, "1800": 8961, "connectivity": 8962, "##hi": 8963, "firefox": 8964, "109": 8965, "118": 8966, "hr": 8967, "so": 8968, "style": 8969, "mark": 8970, "pop": 8971, "ol": 8972, "skip": 8973, "1975": 8974, "as": 8975, "##27": 8976, "##ir": 8977, "##61": 8978, "190": 8979, "mba": 8980, "##\u3046": 8981, "##ai": 8982, "le": 8983, "##ver": 8984, "1900": 8985, "cafe2017": 8986, "lte": 8987, "super": 8988, "113": 8989, "129": 8990, "##ron": 8991, "amd": 8992, "like": 8993, "##\u2606": 8994, "are": 8995, "##ster": 8996, "we": 8997, "##sk": 8998, "paul": 8999, "data": 9000, "international": 9001, "##ft": 9002, "longchamp": 9003, "ssd": 9004, "good": 9005, "##\u30fc\u30c8": 9006, "##ti": 9007, "reply": 9008, "##my": 9009, "\u2193\u2193\u2193": 9010, "apr": 9011, "star": 9012, "##ker": 9013, "source": 9014, "136": 9015, "js": 9016, "112": 9017, "get": 9018, "force": 9019, "photo": 9020, "##one": 9021, "126": 9022, "##2013": 9023, "##ow": 9024, "link": 9025, "bbs": 9026, "1972": 9027, "goods": 9028, "##lin": 9029, "python": 9030, "119": 9031, "##ip": 9032, "game": 9033, "##ics": 9034, "##\u307e\u305b\u3093": 9035, "blue": 9036, "##\u25cf": 9037, "520": 9038, "##45": 9039, "page": 9040, "itunes": 9041, "##03": 9042, "1955": 9043, "260": 9044, "1968": 9045, "gt": 9046, "gif": 9047, "618": 9048, "##ff": 9049, "##47": 9050, "group": 9051, "\u304f\u305f\u3055\u3044": 9052, "about": 9053, "bar": 9054, "ganji": 9055, "##nce": 9056, "music": 9057, "lee": 9058, "not": 9059, "1977": 9060, "1971": 9061, "1973": 9062, "##per": 9063, "an": 9064, "faq": 9065, "comment": 9066, "##\u3063\u3066": 9067, "days": 9068, "##ock": 9069, "116": 9070, "##bs": 9071, "1974": 9072, "1969": 9073, "v1": 9074, "player": 9075, "1956": 9076, "xbox": 9077, "sql": 9078, "fm": 9079, "f1": 9080, "139": 9081, "##ah": 9082, "210": 9083, "##lv": 9084, "##mp": 9085, "##000": 9086, "melody": 9087, "1957": 9088, "##\uff13": 9089, "550": 9090, "17life": 9091, "199": 9092, "1966": 9093, "xml": 9094, "market": 9095, "##au": 9096, "##71": 9097, "999": 9098, "##04": 9099, "what": 9100, "gl": 9101, "##95": 9102, "##age": 9103, "tips": 9104, "##68": 9105, "book": 9106, "##ting": 9107, "mysql": 9108, "can": 9109, "1959": 9110, "230": 9111, "##ung": 9112, "wonderland": 9113, "watch": 9114, "10\u2103": 9115, "##ction": 9116, "9000": 9117, "mar": 9118, "mobile": 9119, "1946": 9120, "1962": 9121, "article": 9122, "##db": 9123, "part": 9124, "\u25b2top": 9125, "party": 9126, "\u3063\u3066": 9127, "1967": 9128, "1964": 9129, "1948": 9130, "##07": 9131, "##ore": 9132, "##op": 9133, "\u3053\u306e": 9134, "dj": 9135, "##78": 9136, "##38": 9137, "010": 9138, "main": 9139, "225": 9140, "1965": 9141, "##ong": 9142, "art": 9143, "320": 9144, "ad": 9145, "134": 9146, "020": 9147, "##73": 9148, "117": 9149, "pm2": 9150, "japan": 9151, "228": 9152, "##08": 9153, "ts": 9154, "1963": 9155, "##ica": 9156, "der": 9157, "sm": 9158, "##36": 9159, "2019": 9160, "##wa": 9161, "ct": 9162, "##\uff17": 9163, "##\u3084": 9164, "##64": 9165, "1937": 9166, "homemesh": 9167, "search": 9168, "##85": 9169, "##\u308c\u306f": 9170, "##tv": 9171, "##di": 9172, "macbook": 9173, "##\uff19": 9174, "##\u304f\u305f\u3055\u3044": 9175, "service": 9176, "##\u2665": 9177, "type": 9178, "\u3063\u305f": 9179, "750": 9180, "##ier": 9181, "##si": 9182, "##75": 9183, "##\u3044\u307e\u3059": 9184, "##ok": 9185, "best": 9186, "##\u30c3\u30c8": 9187, "goris": 9188, "lock": 9189, "##\u3063\u305f": 9190, "cf": 9191, "3m": 9192, "big": 9193, "##ut": 9194, "ftp": 9195, "carol": 9196, "##vi": 9197, "\uff11\uff10": 9198, "1961": 9199, "happy": 9200, "sd": 9201, "##ac": 9202, "122": 9203, "anti": 9204, "pe": 9205, "cnn": 9206, "iii": 9207, "1920": 9208, "138": 9209, "##\u30e9": 9210, "1940": 9211, "esp": 9212, "jan": 9213, "tags": 9214, "##98": 9215, "##51": 9216, "august": 9217, "vol": 9218, "##86": 9219, "154": 9220, "##\u2122": 9221, "##fs": 9222, "##\u308c": 9223, "##sion": 9224, "design": 9225, "ac": 9226, "##\u30e0": 9227, "press": 9228, "jordan": 9229, "ppp": 9230, "that": 9231, "key": 9232, "check": 9233, "##\uff16": 9234, "##tt": 9235, "##\u33a1": 9236, "1080p": 9237, "##lt": 9238, "power": 9239, "##42": 9240, "1952": 9241, "##bc": 9242, "vivi": 9243, "##\u30c3\u30af": 9244, "he": 9245, "133": 9246, "121": 9247, "jpg": 9248, "##rry": 9249, "201": 9250, "175": 9251, "3500": 9252, "1947": 9253, "nb": 9254, "##ted": 9255, "##rn": 9256, "\u3057\u3066\u3044\u307e\u3059": 9257, "1954": 9258, "usd": 9259, "##t00": 9260, "master": 9261, "##\u30f3\u30af": 9262, "001": 9263, "model": 9264, "##58": 9265, "al": 9266, "##09": 9267, "1953": 9268, "##34": 9269, "ram": 9270, "goo": 9271, "\u3066\u3082": 9272, "##ui": 9273, "127": 9274, "1930": 9275, "red": 9276, "##ary": 9277, "rpg": 9278, "item": 9279, "##pm": 9280, "##41": 9281, "270": 9282, "##za": 9283, "project": 9284, "##2012": 9285, "hot": 9286, "td": 9287, "blogabstract": 9288, "##ger": 9289, "##62": 9290, "650": 9291, "##44": 9292, "gr2": 9293, "##\u3057\u307e\u3059": 9294, "##\uff4d": 9295, "black": 9296, "electronic": 9297, "nfc": 9298, "year": 9299, "asus": 9300, "\u307e\u305f": 9301, "html5": 9302, "cindy": 9303, "##hd": 9304, "m3": 9305, "132": 9306, "esc": 9307, "##od": 9308, "booking": 9309, "##53": 9310, "fed": 9311, "tvb": 9312, "##81": 9313, "##ina": 9314, "mit": 9315, "165": 9316, "##\u3044\u308b": 9317, "chan": 9318, "192": 9319, "distribution": 9320, "next": 9321, "\u306b\u306a\u308b": 9322, "peter": 9323, "bios": 9324, "steam": 9325, "cm": 9326, "1941": 9327, "\u306b\u3082": 9328, "pk10": 9329, "##ix": 9330, "##65": 9331, "##91": 9332, "dec": 9333, "nasa": 9334, "##ana": 9335, "icecat": 9336, "00z": 9337, "b1": 9338, "will": 9339, "##46": 9340, "li": 9341, "se": 9342, "##ji": 9343, "##\u307f": 9344, "##ard": 9345, "oct": 9346, "##ain": 9347, "jp": 9348, "##ze": 9349, "##bi": 9350, "cio": 9351, "##56": 9352, "smart": 9353, "h5": 9354, "##39": 9355, "##port": 9356, "curve": 9357, "vpn": 9358, "##nm": 9359, "##dia": 9360, "utc": 9361, "##\u3042\u308a": 9362, "12345678910": 9363, "##52": 9364, "rmvb": 9365, "chanel": 9366, "a4": 9367, "miss": 9368, "##and": 9369, "##im": 9370, "media": 9371, "who": 9372, "##63": 9373, "she": 9374, "girl": 9375, "5s": 9376, "124": 9377, "vera": 9378, "##\u3057\u3066": 9379, "class": 9380, "vivo": 9381, "king": 9382, "##\u30d5": 9383, "##ei": 9384, "national": 9385, "ab": 9386, "1951": 9387, "5cm": 9388, "888": 9389, "145": 9390, "ipod": 9391, "ap": 9392, "1100": 9393, "5mm": 9394, "211": 9395, "ms": 9396, "2756": 9397, "##69": 9398, "mp4": 9399, "msci": 9400, "##po": 9401, "##89": 9402, "131": 9403, "mg": 9404, "index": 9405, "380": 9406, "##bit": 9407, "##out": 9408, "##zz": 9409, "##97": 9410, "##67": 9411, "158": 9412, "apec": 9413, "##\uff18": 9414, "photoshop": 9415, "opec": 9416, "\uffe5799": 9417, "\u3066\u306f": 9418, "##96": 9419, "##tes": 9420, "##ast": 9421, "2g": 9422, "\u25cb\u25cb": 9423, "##\u30fc\u30eb": 9424, "\uffe52899": 9425, "##ling": 9426, "##\u3088": 9427, "##ory": 9428, "1938": 9429, "##ical": 9430, "kitty": 9431, "content": 9432, "##43": 9433, "step3": 9434, "##cn": 9435, "win8": 9436, "155": 9437, "vc": 9438, "1400": 9439, "iphone7": 9440, "robert": 9441, "##\u3057\u305f": 9442, "tcl": 9443, "137": 9444, "beauty": 9445, "##87": 9446, "en": 9447, "dollars": 9448, "##ys": 9449, "##oc": 9450, "step": 9451, "pay": 9452, "yy": 9453, "a1": 9454, "##2011": 9455, "##lly": 9456, "##ks": 9457, "##\u266a": 9458, "1939": 9459, "188": 9460, "download": 9461, "1944": 9462, "sep": 9463, "exe": 9464, "ph": 9465, "\u3044\u307e\u3059": 9466, "school": 9467, "gb": 9468, "center": 9469, "pr": 9470, "street": 9471, "##board": 9472, "uv": 9473, "##37": 9474, "##lan": 9475, "winrar": 9476, "##que": 9477, "##ua": 9478, "##com": 9479, "1942": 9480, "1936": 9481, "480": 9482, "gpu": 9483, "##\uff14": 9484, "ettoday": 9485, "fu": 9486, "tom": 9487, "##54": 9488, "##ren": 9489, "##via": 9490, "149": 9491, "##72": 9492, "b2b": 9493, "144": 9494, "##79": 9495, "##tch": 9496, "rose": 9497, "arm": 9498, "mb": 9499, "##49": 9500, "##ial": 9501, "##nn": 9502, "nvidia": 9503, "step4": 9504, "mvp": 9505, "00\u33a1": 9506, "york": 9507, "156": 9508, "##\u30a4": 9509, "how": 9510, "cpi": 9511, "591": 9512, "2765": 9513, "gov": 9514, "kg": 9515, "joe": 9516, "##xx": 9517, "mandy": 9518, "pa": 9519, "##ser": 9520, "copyright": 9521, "fashion": 9522, "1935": 9523, "don": 9524, "##\u3051": 9525, "ecu": 9526, "##ist": 9527, "##art": 9528, "erp": 9529, "wap": 9530, "have": 9531, "##lm": 9532, "talk": 9533, "##ek": 9534, "##ning": 9535, "##if": 9536, "ch": 9537, "##ite": 9538, "video": 9539, "1943": 9540, "cs": 9541, "san": 9542, "iot": 9543, "look": 9544, "##84": 9545, "##2010": 9546, "##ku": 9547, "october": 9548, "##ux": 9549, "trump": 9550, "##hs": 9551, "##ide": 9552, "box": 9553, "141": 9554, "first": 9555, "##ins": 9556, "april": 9557, "##ight": 9558, "##83": 9559, "185": 9560, "angel": 9561, "protected": 9562, "aa": 9563, "151": 9564, "162": 9565, "x1": 9566, "m2": 9567, "##fe": 9568, "##\u00d7": 9569, "##ho": 9570, "size": 9571, "143": 9572, "min": 9573, "ofo": 9574, "fun": 9575, "gomaji": 9576, "ex": 9577, "hdmi": 9578, "food": 9579, "dns": 9580, "march": 9581, "chris": 9582, "kevin": 9583, "##\u306e\u304b": 9584, "##lla": 9585, "##pp": 9586, "##ec": 9587, "ag": 9588, "ems": 9589, "6s": 9590, "720p": 9591, "##rm": 9592, "##ham": 9593, "off": 9594, "##92": 9595, "asp": 9596, "team": 9597, "fandom": 9598, "ed": 9599, "299": 9600, "\u258c\u2665": 9601, "##ell": 9602, "info": 9603, "\u3055\u308c\u3066\u3044\u307e\u3059": 9604, "##82": 9605, "sina": 9606, "4066": 9607, "161": 9608, "##able": 9609, "##ctor": 9610, "330": 9611, "399": 9612, "315": 9613, "dll": 9614, "rights": 9615, "ltd": 9616, "idc": 9617, "jul": 9618, "3kg": 9619, "1927": 9620, "142": 9621, "ma": 9622, "surface": 9623, "##76": 9624, "##\u30af": 9625, "\uff5e\uff5e\uff5e": 9626, "304": 9627, "mall": 9628, "eps": 9629, "146": 9630, "green": 9631, "##59": 9632, "map": 9633, "space": 9634, "donald": 9635, "v2": 9636, "sodu": 9637, "##light": 9638, "1931": 9639, "148": 9640, "1700": 9641, "\u307e\u3066": 9642, "310": 9643, "reserved": 9644, "htm": 9645, "##han": 9646, "##57": 9647, "2d": 9648, "178": 9649, "mod": 9650, "##ise": 9651, "##tions": 9652, "152": 9653, "ti": 9654, "##shi": 9655, "doc": 9656, "1933": 9657, "icp": 9658, "055": 9659, "wang": 9660, "##ram": 9661, "shopping": 9662, "aug": 9663, "##pi": 9664, "##well": 9665, "now": 9666, "wam": 9667, "b2": 9668, "\u304b\u3089\u304a": 9669, "##hu": 9670, "236": 9671, "1928": 9672, "##gb": 9673, "266": 9674, "f2": 9675, "##93": 9676, "153": 9677, "mix": 9678, "##ef": 9679, "##uan": 9680, "bwl": 9681, "##plus": 9682, "##res": 9683, "core": 9684, "##ess": 9685, "tea": 9686, "5\u2103": 9687, "hktvmall": 9688, "nhk": 9689, "##ate": 9690, "list": 9691, "##ese": 9692, "301": 9693, "feb": 9694, "4m": 9695, "inn": 9696, "\u3066\u306e": 9697, "nov": 9698, "159": 9699, "12345": 9700, "daniel": 9701, "##ci": 9702, "pass": 9703, "##bet": 9704, "##nk": 9705, "coffee": 9706, "202": 9707, "ssl": 9708, "airbnb": 9709, "##ute": 9710, "fbi": 9711, "woshipm": 9712, "skype": 9713, "ea": 9714, "cg": 9715, "sp": 9716, "##fc": 9717, "##www": 9718, "yes": 9719, "edge": 9720, "alt": 9721, "007": 9722, "##94": 9723, "fpga": 9724, "##ght": 9725, "##gs": 9726, "iso9001": 9727, "\u3055\u3044": 9728, "##ile": 9729, "##wood": 9730, "##uo": 9731, "image": 9732, "lin": 9733, "icon": 9734, "american": 9735, "##em": 9736, "1932": 9737, "set": 9738, "says": 9739, "##king": 9740, "##tive": 9741, "blogger": 9742, "##74": 9743, "\u306a\u3068": 9744, "256": 9745, "147": 9746, "##ox": 9747, "##zy": 9748, "##red": 9749, "##ium": 9750, "##lf": 9751, "nokia": 9752, "claire": 9753, "##\u30ea": 9754, "##ding": 9755, "november": 9756, "lohas": 9757, "##500": 9758, "##tic": 9759, "##\u30de": 9760, "##cs": 9761, "##\u3042\u308b": 9762, "##che": 9763, "##ire": 9764, "##gy": 9765, "##ult": 9766, "db": 9767, "january": 9768, "win": 9769, "##\u30ab": 9770, "166": 9771, "road": 9772, "ptt": 9773, "##\u307e": 9774, "##\u3064": 9775, "198": 9776, "##fa": 9777, "##mer": 9778, "anna": 9779, "pchome": 9780, "\u306f\u3044": 9781, "udn": 9782, "ef": 9783, "420": 9784, "##time": 9785, "##tte": 9786, "2030": 9787, "##\u30a2": 9788, "g20": 9789, "white": 9790, "\u304b\u304b\u308a\u307e\u3059": 9791, "1929": 9792, "308": 9793, "garden": 9794, "eleven": 9795, "di": 9796, "##\u304a\u308a\u307e\u3059": 9797, "chen": 9798, "309b": 9799, "777": 9800, "172": 9801, "young": 9802, "cosplay": 9803, "\u3061\u3066\u306a\u3044": 9804, "4500": 9805, "bat": 9806, "##123": 9807, "##tra": 9808, "##\u3066\u306f": 9809, "kindle": 9810, "npc": 9811, "steve": 9812, "etc": 9813, "##ern": 9814, "##\uff5c": 9815, "call": 9816, "xperia": 9817, "ces": 9818, "travel": 9819, "sk": 9820, "s7": 9821, "##ous": 9822, "1934": 9823, "##int": 9824, "\u307f\u3044\u305f\u305f\u3051\u307e\u3059": 9825, "183": 9826, "edu": 9827, "file": 9828, "cho": 9829, "qr": 9830, "##car": 9831, "##our": 9832, "186": 9833, "##ant": 9834, "##\uff44": 9835, "eric": 9836, "1914": 9837, "rends": 9838, "##jo": 9839, "##\u3059\u308b": 9840, "mastercard": 9841, "##2000": 9842, "kb": 9843, "##min": 9844, "290": 9845, "##ino": 9846, "vista": 9847, "##ris": 9848, "##ud": 9849, "jack": 9850, "2400": 9851, "##set": 9852, "169": 9853, "pos": 9854, "1912": 9855, "##her": 9856, "##ou": 9857, "taipei": 9858, "\u3057\u304f": 9859, "205": 9860, "beta": 9861, "##\u307e\u305b\u3093\u304b": 9862, "232": 9863, "##fi": 9864, "express": 9865, "255": 9866, "body": 9867, "##ill": 9868, "aphojoy": 9869, "user": 9870, "december": 9871, "meiki": 9872, "##ick": 9873, "tweet": 9874, "richard": 9875, "##av": 9876, "##\u11ab": 9877, "iphone6": 9878, "##dd": 9879, "\u3061\u3066\u3059\u304b": 9880, "views": 9881, "##mark": 9882, "321": 9883, "pd": 9884, "##\uff10\uff10": 9885, "times": 9886, "##\u25b2": 9887, "level": 9888, "##ash": 9889, "10g": 9890, "point": 9891, "5l": 9892, "##ome": 9893, "208": 9894, "koreanmall": 9895, "##ak": 9896, "george": 9897, "q2": 9898, "206": 9899, "wma": 9900, "tcp": 9901, "##200": 9902, "\u30b9\u30bf\u30c3\u30d5": 9903, "full": 9904, "mlb": 9905, "##lle": 9906, "##watch": 9907, "tm": 9908, "run": 9909, "179": 9910, "911": 9911, "smith": 9912, "business": 9913, "##und": 9914, "1919": 9915, "color": 9916, "##tal": 9917, "222": 9918, "171": 9919, "##less": 9920, "moon": 9921, "4399": 9922, "##rl": 9923, "update": 9924, "pcb": 9925, "shop": 9926, "499": 9927, "157": 9928, "little": 9929, "\u306a\u3057": 9930, "end": 9931, "##mhz": 9932, "van": 9933, "dsp": 9934, "easy": 9935, "660": 9936, "##house": 9937, "##key": 9938, "history": 9939, "##\uff4f": 9940, "oh": 9941, "##001": 9942, "##hy": 9943, "##web": 9944, "oem": 9945, "let": 9946, "was": 9947, "##2009": 9948, "##gg": 9949, "review": 9950, "##wan": 9951, "182": 9952, "##\u00b0c": 9953, "203": 9954, "uc": 9955, "title": 9956, "##val": 9957, "united": 9958, "233": 9959, "2021": 9960, "##ons": 9961, "doi": 9962, "trivago": 9963, "overdope": 9964, "sbs": 9965, "##ance": 9966, "##\u3061": 9967, "grand": 9968, "special": 9969, "573032185": 9970, "imf": 9971, "216": 9972, "wx17house": 9973, "##so": 9974, "##\u30fc\u30e0": 9975, "audi": 9976, "##he": 9977, "london": 9978, "william": 9979, "##rp": 9980, "##ake": 9981, "science": 9982, "beach": 9983, "cfa": 9984, "amp": 9985, "ps4": 9986, "880": 9987, "##800": 9988, "##link": 9989, "##hp": 9990, "crm": 9991, "ferragamo": 9992, "bell": 9993, "make": 9994, "##eng": 9995, "195": 9996, "under": 9997, "zh": 9998, "photos": 9999, "2300": 10000, "##style": 10001, "##\u30f3\u30c8": 10002, "via": 10003, "176": 10004, "da": 10005, "##gi": 10006, "company": 10007, "i7": 10008, "##ray": 10009, "thomas": 10010, "370": 10011, "ufo": 10012, "i5": 10013, "##max": 10014, "plc": 10015, "ben": 10016, "back": 10017, "research": 10018, "8g": 10019, "173": 10020, "mike": 10021, "##pc": 10022, "##\u30c3\u30d5": 10023, "september": 10024, "189": 10025, "##ace": 10026, "vps": 10027, "february": 10028, "167": 10029, "pantos": 10030, "wp": 10031, "lisa": 10032, "1921": 10033, "\u2605\u2605": 10034, "jquery": 10035, "night": 10036, "long": 10037, "offer": 10038, "##berg": 10039, "##news": 10040, "1911": 10041, "##\u3044\u3066": 10042, "ray": 10043, "fks": 10044, "wto": 10045, "\u305b\u307e\u3059": 10046, "over": 10047, "164": 10048, "340": 10049, "##all": 10050, "##rus": 10051, "1924": 10052, "##888": 10053, "##works": 10054, "blogtitle": 10055, "loftpermalink": 10056, "##\u2192": 10057, "187": 10058, "martin": 10059, "test": 10060, "ling": 10061, "km": 10062, "##\u3081": 10063, "15000": 10064, "fda": 10065, "v3": 10066, "##ja": 10067, "##\u30ed": 10068, "\uff57edding": 10069, "\u304b\u3042\u308b": 10070, "outlet": 10071, "family": 10072, "##ea": 10073, "\u3092\u3053": 10074, "##top": 10075, "story": 10076, "##ness": 10077, "salvatore": 10078, "##lu": 10079, "204": 10080, "swift": 10081, "215": 10082, "room": 10083, "\u3057\u3066\u3044\u308b": 10084, "oracle": 10085, "##ul": 10086, "1925": 10087, "sam": 10088, "b2c": 10089, "week": 10090, "pi": 10091, "rock": 10092, "##\u306e\u306f": 10093, "##\uff41": 10094, "##\u3051\u3068": 10095, "##ean": 10096, "##300": 10097, "##gle": 10098, "cctv": 10099, "after": 10100, "chinese": 10101, "##back": 10102, "powered": 10103, "x2": 10104, "##tan": 10105, "1918": 10106, "##nes": 10107, "##\u30a4\u30f3": 10108, "canon": 10109, "only": 10110, "181": 10111, "##zi": 10112, "##las": 10113, "say": 10114, "##oe": 10115, "184": 10116, "##sd": 10117, "221": 10118, "##bot": 10119, "##world": 10120, "##zo": 10121, "sky": 10122, "made": 10123, "top100": 10124, "just": 10125, "1926": 10126, "pmi": 10127, "802": 10128, "234": 10129, "gap": 10130, "##vr": 10131, "177": 10132, "les": 10133, "174": 10134, "\u25b2topoct": 10135, "ball": 10136, "vogue": 10137, "vi": 10138, "ing": 10139, "ofweek": 10140, "cos": 10141, "##list": 10142, "##ort": 10143, "\u25b2topmay": 10144, "##\u306a\u3089": 10145, "##lon": 10146, "\u3068\u3057\u3066": 10147, "last": 10148, "##tc": 10149, "##of": 10150, "##bus": 10151, "##gen": 10152, "real": 10153, "eva": 10154, "##\u30b3": 10155, "a3": 10156, "nas": 10157, "##lie": 10158, "##ria": 10159, "##coin": 10160, "##bt": 10161, "\u25b2topapr": 10162, "his": 10163, "212": 10164, "cat": 10165, "nata": 10166, "vive": 10167, "health": 10168, "\u22ef\u22ef": 10169, "drive": 10170, "sir": 10171, "\u25b2topmar": 10172, "du": 10173, "cup": 10174, "##\u30ab\u30fc": 10175, "##ook": 10176, "##\u3088\u3046": 10177, "##sy": 10178, "alex": 10179, "msg": 10180, "tour": 10181, "\u3057\u307e\u3057\u305f": 10182, "3ce": 10183, "##word": 10184, "193": 10185, "ebooks": 10186, "r8": 10187, "block": 10188, "318": 10189, "##\u3088\u308a": 10190, "2200": 10191, "nice": 10192, "pvp": 10193, "207": 10194, "months": 10195, "1905": 10196, "rewards": 10197, "##ther": 10198, "1917": 10199, "0800": 10200, "##xi": 10201, "##\u30c1": 10202, "##sc": 10203, "micro": 10204, "850": 10205, "gg": 10206, "blogfp": 10207, "op": 10208, "1922": 10209, "daily": 10210, "m1": 10211, "264": 10212, "true": 10213, "##bb": 10214, "ml": 10215, "##tar": 10216, "##\u306e\u304a": 10217, "##ky": 10218, "anthony": 10219, "196": 10220, "253": 10221, "##yo": 10222, "state": 10223, "218": 10224, "##ara": 10225, "##aa": 10226, "##rc": 10227, "##tz": 10228, "##ston": 10229, "\u3088\u308a": 10230, "gear": 10231, "##eo": 10232, "##ade": 10233, "ge": 10234, "see": 10235, "1923": 10236, "##win": 10237, "##ura": 10238, "ss": 10239, "heart": 10240, "##den": 10241, "##ita": 10242, "down": 10243, "##sm": 10244, "el": 10245, "png": 10246, "2100": 10247, "610": 10248, "rakuten": 10249, "whatsapp": 10250, "bay": 10251, "dream": 10252, "add": 10253, "##use": 10254, "680": 10255, "311": 10256, "pad": 10257, "gucci": 10258, "mpv": 10259, "##ode": 10260, "##fo": 10261, "island": 10262, "\u25b2topjun": 10263, "##\u25bc": 10264, "223": 10265, "jason": 10266, "214": 10267, "chicago": 10268, "##\u2764": 10269, "\u3057\u306e": 10270, "##hone": 10271, "io": 10272, "##\u308c\u308b": 10273, "##\u3053\u3068\u304b": 10274, "sogo": 10275, "be2": 10276, "##ology": 10277, "990": 10278, "cloud": 10279, "vcd": 10280, "##con": 10281, "2\uff5e3": 10282, "##ford": 10283, "##joy": 10284, "##kb": 10285, "##\u3053\u3055\u3044\u307e\u3059": 10286, "##rade": 10287, "but": 10288, "##ach": 10289, "docker": 10290, "##ful": 10291, "rfid": 10292, "ul": 10293, "##ase": 10294, "hit": 10295, "ford": 10296, "##star": 10297, "580": 10298, "##\u25cb": 10299, "\uff11\uff11": 10300, "a2": 10301, "sdk": 10302, "reading": 10303, "edited": 10304, "##are": 10305, "cmos": 10306, "##mc": 10307, "238": 10308, "siri": 10309, "light": 10310, "##ella": 10311, "##\u305f\u3081": 10312, "bloomberg": 10313, "##read": 10314, "pizza": 10315, "##ison": 10316, "jimmy": 10317, "##vm": 10318, "college": 10319, "node": 10320, "journal": 10321, "ba": 10322, "18k": 10323, "##play": 10324, "245": 10325, "##cer": 10326, "\uff12\uff10": 10327, "magic": 10328, "##yu": 10329, "191": 10330, "jump": 10331, "288": 10332, "tt": 10333, "##ings": 10334, "asr": 10335, "##lia": 10336, "3200": 10337, "step5": 10338, "network": 10339, "##cd": 10340, "mc": 10341, "\u3044\u3057\u307e\u3059": 10342, "1234": 10343, "pixstyleme": 10344, "273": 10345, "##600": 10346, "2800": 10347, "money": 10348, "\u2605\u2605\u2605\u2605\u2605": 10349, "1280": 10350, "\uff11\uff12": 10351, "430": 10352, "bl": 10353, "\u307f\u306e": 10354, "act": 10355, "##tus": 10356, "tokyo": 10357, "##rial": 10358, "##life": 10359, "emba": 10360, "##ae": 10361, "saas": 10362, "tcs": 10363, "##rk": 10364, "##wang": 10365, "summer": 10366, "##sp": 10367, "ko": 10368, "##ving": 10369, "390": 10370, "premium": 10371, "##\u305d\u306e": 10372, "netflix": 10373, "##\u30d2": 10374, "uk": 10375, "mt": 10376, "##lton": 10377, "right": 10378, "frank": 10379, "two": 10380, "209": 10381, "\u3048\u308b": 10382, "##ple": 10383, "##cal": 10384, "021": 10385, "##\u3093\u306a": 10386, "##sen": 10387, "##ville": 10388, "hold": 10389, "nexus": 10390, "dd": 10391, "##ius": 10392, "\u3066\u304a": 10393, "##mah": 10394, "##\u306a\u304f": 10395, "tila": 10396, "zero": 10397, "820": 10398, "ce": 10399, "##tin": 10400, "resort": 10401, "##ws": 10402, "charles": 10403, "old": 10404, "p10": 10405, "5d": 10406, "report": 10407, "##360": 10408, "##ru": 10409, "##\u306b\u306f": 10410, "bus": 10411, "vans": 10412, "lt": 10413, "##est": 10414, "pv": 10415, "##\u30ec": 10416, "links": 10417, "rebecca": 10418, "##\u30c4": 10419, "##dm": 10420, "azure": 10421, "##365": 10422, "\u304d\u306a": 10423, "limited": 10424, "bit": 10425, "4gb": 10426, "##mon": 10427, "1910": 10428, "moto": 10429, "##eam": 10430, "213": 10431, "1913": 10432, "var": 10433, "eos": 10434, "\u306a\u3068\u306e": 10435, "226": 10436, "blogspot": 10437, "\u3055\u308c\u305f": 10438, "699": 10439, "e3": 10440, "dos": 10441, "dm": 10442, "fc": 10443, "##ments": 10444, "##ik": 10445, "##kw": 10446, "boy": 10447, "##bin": 10448, "##ata": 10449, "960": 10450, "er": 10451, "##\u305b": 10452, "219": 10453, "##vin": 10454, "##tu": 10455, "##ula": 10456, "194": 10457, "##\u2225": 10458, "station": 10459, "##\u308d": 10460, "##ature": 10461, "835": 10462, "files": 10463, "zara": 10464, "hdr": 10465, "top10": 10466, "nature": 10467, "950": 10468, "magazine": 10469, "s6": 10470, "marriott": 10471, "##\u30b7": 10472, "avira": 10473, "case": 10474, "##\u3063\u3068": 10475, "tab": 10476, "##ran": 10477, "tony": 10478, "##home": 10479, "oculus": 10480, "im": 10481, "##ral": 10482, "jean": 10483, "saint": 10484, "cry": 10485, "307": 10486, "rosie": 10487, "##force": 10488, "##ini": 10489, "ice": 10490, "##bert": 10491, "\u306e\u3042\u308b": 10492, "##nder": 10493, "##mber": 10494, "pet": 10495, "2600": 10496, "##\u25c6": 10497, "plurk": 10498, "\u25b2topdec": 10499, "##sis": 10500, "00kg": 10501, "\u25b2topnov": 10502, "720": 10503, "##ence": 10504, "tim": 10505, "##\u03c9": 10506, "##nc": 10507, "##\u3066\u3082": 10508, "##name": 10509, "log": 10510, "ips": 10511, "great": 10512, "ikea": 10513, "malaysia": 10514, "unix": 10515, "##\u30a4\u30c8": 10516, "3600": 10517, "##ncy": 10518, "##nie": 10519, "12000": 10520, "akb48": 10521, "##ye": 10522, "##oid": 10523, "404": 10524, "##chi": 10525, "##\u3044\u305f": 10526, "oa": 10527, "xuehai": 10528, "##1000": 10529, "##orm": 10530, "##rf": 10531, "275": 10532, "\u3055\u3093": 10533, "##ware": 10534, "##\u30ea\u30fc": 10535, "980": 10536, "ho": 10537, "##pro": 10538, "text": 10539, "##era": 10540, "560": 10541, "bob": 10542, "227": 10543, "##ub": 10544, "##2008": 10545, "8891": 10546, "scp": 10547, "avi": 10548, "##zen": 10549, "2022": 10550, "mi": 10551, "wu": 10552, "museum": 10553, "qvod": 10554, "apache": 10555, "lake": 10556, "jcb": 10557, "\u25b2topaug": 10558, "\u2605\u2605\u2605": 10559, "ni": 10560, "##hr": 10561, "hill": 10562, "302": 10563, "ne": 10564, "weibo": 10565, "490": 10566, "ruby": 10567, "##\u30fc\u30b7": 10568, "##\u30f6": 10569, "##row": 10570, "4d": 10571, "\u25b2topjul": 10572, "iv": 10573, "##ish": 10574, "github": 10575, "306": 10576, "mate": 10577, "312": 10578, "##\u30b9\u30c8": 10579, "##lot": 10580, "##ane": 10581, "andrew": 10582, "\u306e\u30cf\u30a4\u30c8": 10583, "##tina": 10584, "t1": 10585, "rf": 10586, "ed2k": 10587, "##vel": 10588, "##900": 10589, "way": 10590, "final": 10591, "\u308a\u306e": 10592, "ns": 10593, "5a": 10594, "705": 10595, "197": 10596, "##\u30e1": 10597, "sweet": 10598, "bytes": 10599, "##ene": 10600, "\u25b2topjan": 10601, "231": 10602, "##cker": 10603, "##2007": 10604, "##px": 10605, "100g": 10606, "topapp": 10607, "229": 10608, "helpapp": 10609, "rs": 10610, "low": 10611, "14k": 10612, "g4g": 10613, "care": 10614, "630": 10615, "ldquo": 10616, "\u3042\u308a": 10617, "##fork": 10618, "leave": 10619, "rm": 10620, "edition": 10621, "##gan": 10622, "##zon": 10623, "##qq": 10624, "\u25b2topsep": 10625, "##google": 10626, "##ism": 10627, "gold": 10628, "224": 10629, "explorer": 10630, "##zer": 10631, "toyota": 10632, "category": 10633, "select": 10634, "visual": 10635, "##labels": 10636, "restaurant": 10637, "##md": 10638, "posts": 10639, "s1": 10640, "##ico": 10641, "\u3082\u3063\u3068": 10642, "angelababy": 10643, "123456": 10644, "217": 10645, "sports": 10646, "s3": 10647, "mbc": 10648, "1915": 10649, "\u3057\u3066\u304f\u305f\u3055\u3044": 10650, "shell": 10651, "x86": 10652, "candy": 10653, "##new": 10654, "kbs": 10655, "face": 10656, "xl": 10657, "470": 10658, "##here": 10659, "4a": 10660, "swissinfo": 10661, "v8": 10662, "\u25b2topfeb": 10663, "dram": 10664, "##ual": 10665, "##vice": 10666, "3a": 10667, "##wer": 10668, "sport": 10669, "q1": 10670, "ios10": 10671, "public": 10672, "int": 10673, "card": 10674, "##\uff43": 10675, "ep": 10676, "au": 10677, "rt": 10678, "##\u308c\u305f": 10679, "1080": 10680, "bill": 10681, "##mll": 10682, "kim": 10683, "\uff13\uff10": 10684, "460": 10685, "wan": 10686, "##uk": 10687, "##\u30df": 10688, "x3": 10689, "298": 10690, "0t": 10691, "scott": 10692, "##ming": 10693, "239": 10694, "e5": 10695, "##3d": 10696, "h7n9": 10697, "worldcat": 10698, "brown": 10699, "##\u3042\u308a\u307e\u3059": 10700, "##vo": 10701, "##led": 10702, "##580": 10703, "##ax": 10704, "249": 10705, "410": 10706, "##ert": 10707, "paris": 10708, "##\uff5e6": 10709, "polo": 10710, "925": 10711, "##lr": 10712, "599": 10713, "##\u30ca": 10714, "capital": 10715, "##hing": 10716, "bank": 10717, "cv": 10718, "1g": 10719, "##chat": 10720, "##\uff53": 10721, "##\u305f\u3044": 10722, "adc": 10723, "##ule": 10724, "2m": 10725, "##\uff45": 10726, "digital": 10727, "hotmail": 10728, "268": 10729, "##pad": 10730, "870": 10731, "bbq": 10732, "quot": 10733, "##ring": 10734, "before": 10735, "wali": 10736, "##\u307e\u3066": 10737, "mcu": 10738, "2k": 10739, "2b": 10740, "\u3068\u3044\u3046": 10741, "costco": 10742, "316": 10743, "north": 10744, "333": 10745, "switch": 10746, "##city": 10747, "##\uff50": 10748, "philips": 10749, "##mann": 10750, "management": 10751, "panasonic": 10752, "##cl": 10753, "##vd": 10754, "##ping": 10755, "##rge": 10756, "alice": 10757, "##lk": 10758, "##\u307e\u3057\u3087\u3046": 10759, "css3": 10760, "##ney": 10761, "vision": 10762, "alpha": 10763, "##ular": 10764, "##400": 10765, "##tter": 10766, "lz": 10767, "\u306b\u304a": 10768, "##\u3042\u308a\u307e\u305b\u3093": 10769, "mode": 10770, "gre": 10771, "1916": 10772, "pci": 10773, "##tm": 10774, "237": 10775, "1\uff5e2": 10776, "##yan": 10777, "##\u305d": 10778, "\u306b\u3064\u3044\u3066": 10779, "##let": 10780, "##\u30ad": 10781, "work": 10782, "war": 10783, "coach": 10784, "ah": 10785, "mary": 10786, "##\u1175": 10787, "huang": 10788, "##pt": 10789, "a8": 10790, "pt": 10791, "follow": 10792, "##berry": 10793, "1895": 10794, "##ew": 10795, "a5": 10796, "ghost": 10797, "##\u30b7\u30e7\u30f3": 10798, "##wn": 10799, "##og": 10800, "south": 10801, "##code": 10802, "girls": 10803, "##rid": 10804, "action": 10805, "villa": 10806, "git": 10807, "r11": 10808, "table": 10809, "games": 10810, "##cket": 10811, "error": 10812, "##anonymoussaid": 10813, "##ag": 10814, "here": 10815, "##ame": 10816, "##gc": 10817, "qa": 10818, "##\u25a0": 10819, "##lis": 10820, "gmp": 10821, "##gin": 10822, "vmalife": 10823, "##cher": 10824, "yu": 10825, "wedding": 10826, "##tis": 10827, "demo": 10828, "dragon": 10829, "530": 10830, "soho": 10831, "social": 10832, "bye": 10833, "##rant": 10834, "river": 10835, "orz": 10836, "acer": 10837, "325": 10838, "##\u2191": 10839, "##\u30fc\u30b9": 10840, "##ats": 10841, "261": 10842, "del": 10843, "##ven": 10844, "440": 10845, "ups": 10846, "##\u3088\u3046\u306b": 10847, "##\u30bf\u30fc": 10848, "305": 10849, "value": 10850, "macd": 10851, "yougou": 10852, "##dn": 10853, "661": 10854, "##ano": 10855, "ll": 10856, "##urt": 10857, "##rent": 10858, "continue": 10859, "script": 10860, "##wen": 10861, "##ect": 10862, "paper": 10863, "263": 10864, "319": 10865, "shift": 10866, "##chel": 10867, "##\u30d5\u30c8": 10868, "##cat": 10869, "258": 10870, "x5": 10871, "fox": 10872, "243": 10873, "##\u3055\u3093": 10874, "car": 10875, "aaa": 10876, "##blog": 10877, "loading": 10878, "##yn": 10879, "##tp": 10880, "kuso": 10881, "799": 10882, "si": 10883, "sns": 10884, "\u30a4\u30ab\u305b\u308b\u30c6\u30f3\u30de": 10885, "\u30d2\u30f3\u30af\u30c6\u30f3\u30de3": 10886, "rmb": 10887, "vdc": 10888, "forest": 10889, "central": 10890, "prime": 10891, "help": 10892, "ultra": 10893, "##rmb": 10894, "##\u3088\u3046\u306a": 10895, "241": 10896, "square": 10897, "688": 10898, "##\u3057\u3044": 10899, "\u306e\u306a\u3044\u30d5\u30ed\u30af\u306b": 10900, "##field": 10901, "##reen": 10902, "##ors": 10903, "##ju": 10904, "c1": 10905, "start": 10906, "510": 10907, "##air": 10908, "##map": 10909, "cdn": 10910, "##wo": 10911, "cba": 10912, "stephen": 10913, "m8": 10914, "100km": 10915, "##get": 10916, "opera": 10917, "##base": 10918, "##ood": 10919, "vsa": 10920, "com\u2122": 10921, "##aw": 10922, "##ail": 10923, "251": 10924, "\u306a\u306e\u3066": 10925, "count": 10926, "t2": 10927, "##\u1161": 10928, "##een": 10929, "2700": 10930, "hop": 10931, "##gp": 10932, "vsc": 10933, "tree": 10934, "##eg": 10935, "##ose": 10936, "816": 10937, "285": 10938, "##ories": 10939, "##shop": 10940, "alphago": 10941, "v4": 10942, "1909": 10943, "simon": 10944, "##\u11bc": 10945, "fluke62max": 10946, "zip": 10947, "\u30b9\u30db\u30f3\u30b5\u30fc": 10948, "##sta": 10949, "louis": 10950, "cr": 10951, "bas": 10952, "##\uff5e10": 10953, "bc": 10954, "##yer": 10955, "hadoop": 10956, "##ube": 10957, "##wi": 10958, "1906": 10959, "0755": 10960, "hola": 10961, "##low": 10962, "place": 10963, "centre": 10964, "5v": 10965, "d3": 10966, "##fer": 10967, "252": 10968, "##750": 10969, "##media": 10970, "281": 10971, "540": 10972, "0l": 10973, "exchange": 10974, "262": 10975, "series": 10976, "##\u30cf\u30fc": 10977, "##san": 10978, "eb": 10979, "##bank": 10980, "##\uff4b": 10981, "q3": 10982, "##nge": 10983, "##mail": 10984, "take": 10985, "##lp": 10986, "259": 10987, "1888": 10988, "client": 10989, "east": 10990, "cache": 10991, "event": 10992, "vincent": 10993, "##\u30fc\u30eb\u3092": 10994, "\u304d\u3092": 10995, "##nse": 10996, "sui": 10997, "855": 10998, "adchoice": 10999, "##\u0438": 11000, "##stry": 11001, "##\u306a\u305f\u306e": 11002, "246": 11003, "##zone": 11004, "ga": 11005, "apps": 11006, "sea": 11007, "##ab": 11008, "248": 11009, "cisco": 11010, "##\u30bf": 11011, "##rner": 11012, "kymco": 11013, "##care": 11014, "dha": 11015, "##pu": 11016, "##yi": 11017, "minkoff": 11018, "royal": 11019, "p1": 11020, "\u3078\u306e": 11021, "annie": 11022, "269": 11023, "collection": 11024, "kpi": 11025, "playstation": 11026, "257": 11027, "\u306b\u306a\u308a\u307e\u3059": 11028, "866": 11029, "bh": 11030, "##bar": 11031, "queen": 11032, "505": 11033, "radio": 11034, "1904": 11035, "andy": 11036, "armani": 11037, "##xy": 11038, "manager": 11039, "iherb": 11040, "##ery": 11041, "##share": 11042, "spring": 11043, "raid": 11044, "johnson": 11045, "1908": 11046, "##ob": 11047, "volvo": 11048, "hall": 11049, "##ball": 11050, "v6": 11051, "our": 11052, "taylor": 11053, "##hk": 11054, "bi": 11055, "242": 11056, "##cp": 11057, "kate": 11058, "bo": 11059, "water": 11060, "technology": 11061, "##rie": 11062, "\u30b5\u30a4\u30c8\u306f": 11063, "277": 11064, "##ona": 11065, "##sl": 11066, "hpv": 11067, "303": 11068, "gtx": 11069, "hip": 11070, "rdquo": 11071, "jayz": 11072, "stone": 11073, "##lex": 11074, "##rum": 11075, "namespace": 11076, "##\u3084\u308a": 11077, "620": 11078, "##ale": 11079, "##atic": 11080, "des": 11081, "##erson": 11082, "##ql": 11083, "##ves": 11084, "##type": 11085, "enter": 11086, "##\u3053\u306e": 11087, "##\u3066\u304d\u307e\u3059": 11088, "d2": 11089, "##168": 11090, "##mix": 11091, "##bian": 11092, "\u3068\u306e": 11093, "a9": 11094, "jj": 11095, "ky": 11096, "##lc": 11097, "access": 11098, "movie": 11099, "##hc": 11100, "\u30ea\u30b9\u30c8\u306b": 11101, "tower": 11102, "##ration": 11103, "##mit": 11104, "\u307e\u3059": 11105, "##nch": 11106, "ua": 11107, "tel": 11108, "prefix": 11109, "##o2": 11110, "1907": 11111, "##point": 11112, "1901": 11113, "ott": 11114, "\uff5e10": 11115, "##http": 11116, "##ury": 11117, "baidu": 11118, "##ink": 11119, "member": 11120, "##logy": 11121, "bigbang": 11122, "nownews": 11123, "##js": 11124, "##shot": 11125, "##tb": 11126, "##\u3053\u3068": 11127, "247": 11128, "eba": 11129, "##tics": 11130, "##lus": 11131, "\u3051\u308b": 11132, "v5": 11133, "spark": 11134, "##ama": 11135, "there": 11136, "##ions": 11137, "god": 11138, "##lls": 11139, "##down": 11140, "hiv": 11141, "##ress": 11142, "burberry": 11143, "day2": 11144, "##kv": 11145, "\u25c6\u25c6": 11146, "jeff": 11147, "related": 11148, "film": 11149, "edit": 11150, "joseph": 11151, "283": 11152, "##ark": 11153, "cx": 11154, "32gb": 11155, "order": 11156, "g9": 11157, "30000": 11158, "##ans": 11159, "##tty": 11160, "s5": 11161, "##bee": 11162, "\u304b\u3042\u308a\u307e\u3059": 11163, "thread": 11164, "xr": 11165, "buy": 11166, "sh": 11167, "005": 11168, "land": 11169, "spotify": 11170, "mx": 11171, "##ari": 11172, "276": 11173, "##verse": 11174, "\u00d7email": 11175, "sf": 11176, "why": 11177, "##\u3053\u3068\u3066": 11178, "244": 11179, "7headlines": 11180, "nego": 11181, "sunny": 11182, "dom": 11183, "exo": 11184, "401": 11185, "666": 11186, "positioning": 11187, "fit": 11188, "rgb": 11189, "##tton": 11190, "278": 11191, "kiss": 11192, "alexa": 11193, "adam": 11194, "lp": 11195, "\u307f\u30ea\u30b9\u30c8\u3092": 11196, "##\uff47": 11197, "mp": 11198, "##ties": 11199, "##llow": 11200, "amy": 11201, "##du": 11202, "np": 11203, "002": 11204, "institute": 11205, "271": 11206, "##rth": 11207, "##lar": 11208, "2345": 11209, "590": 11210, "##des": 11211, "sidebar": 11212, "\uff11\uff15": 11213, "imax": 11214, "site": 11215, "##cky": 11216, "##kit": 11217, "##ime": 11218, "##009": 11219, "season": 11220, "323": 11221, "##fun": 11222, "##\u30f3\u30bf\u30fc": 11223, "##\u3072": 11224, "gogoro": 11225, "a7": 11226, "pu": 11227, "lily": 11228, "fire": 11229, "twd600": 11230, "##\u30c3\u30bb\u30fc\u30b7\u3092": 11231, "\u3044\u3066": 11232, "##vis": 11233, "30ml": 11234, "##cture": 11235, "##\u3092\u304a": 11236, "information": 11237, "##\u30aa": 11238, "close": 11239, "friday": 11240, "##\u304f\u308c\u308b": 11241, "yi": 11242, "nick": 11243, "\u3066\u3059\u304b": 11244, "##tta": 11245, "##tel": 11246, "6500": 11247, "##lock": 11248, "cbd": 11249, "economy": 11250, "254": 11251, "\u304b\u304a": 11252, "267": 11253, "tinker": 11254, "double": 11255, "375": 11256, "8gb": 11257, "voice": 11258, "##app": 11259, "oops": 11260, "channel": 11261, "today": 11262, "985": 11263, "##right": 11264, "raw": 11265, "xyz": 11266, "##\uff0b": 11267, "jim": 11268, "edm": 11269, "##cent": 11270, "7500": 11271, "supreme": 11272, "814": 11273, "ds": 11274, "##its": 11275, "##asia": 11276, "dropbox": 11277, "##\u3066\u3059\u304b": 11278, "##tti": 11279, "books": 11280, "272": 11281, "100ml": 11282, "##tle": 11283, "##ller": 11284, "##ken": 11285, "##more": 11286, "##boy": 11287, "sex": 11288, "309": 11289, "##dom": 11290, "t3": 11291, "##ider": 11292, "##\u306a\u308a\u307e\u3059": 11293, "##unch": 11294, "1903": 11295, "810": 11296, "feel": 11297, "5500": 11298, "##\u304b\u3063\u305f": 11299, "##put": 11300, "\u306b\u3088\u308a": 11301, "s2": 11302, "mo": 11303, "##gh": 11304, "men": 11305, "ka": 11306, "amoled": 11307, "div": 11308, "##tr": 11309, "##n1": 11310, "port": 11311, "howard": 11312, "##tags": 11313, "ken": 11314, "dnf": 11315, "##nus": 11316, "adsense": 11317, "##\u0430": 11318, "ide": 11319, "##\u3078": 11320, "buff": 11321, "thunder": 11322, "##town": 11323, "##ique": 11324, "has": 11325, "##body": 11326, "auto": 11327, "pin": 11328, "##erry": 11329, "tee": 11330, "\u3066\u3057\u305f": 11331, "295": 11332, "number": 11333, "##the": 11334, "##013": 11335, "object": 11336, "psp": 11337, "cool": 11338, "udnbkk": 11339, "16gb": 11340, "##mic": 11341, "miui": 11342, "##tro": 11343, "most": 11344, "r2": 11345, "##alk": 11346, "##nity": 11347, "1880": 11348, "\u00b10": 11349, "##\u3044\u307e\u3057\u305f": 11350, "428": 11351, "s4": 11352, "law": 11353, "version": 11354, "##oa": 11355, "n1": 11356, "sgs": 11357, "docomo": 11358, "##tf": 11359, "##ack": 11360, "henry": 11361, "fc2": 11362, "##ded": 11363, "##sco": 11364, "##014": 11365, "##rite": 11366, "286": 11367, "0mm": 11368, "linkedin": 11369, "##ada": 11370, "##now": 11371, "wii": 11372, "##ndy": 11373, "ucbug": 11374, "##\u25ce": 11375, "sputniknews": 11376, "legalminer": 11377, "##ika": 11378, "##xp": 11379, "2gb": 11380, "##bu": 11381, "q10": 11382, "oo": 11383, "b6": 11384, "come": 11385, "##rman": 11386, "cheese": 11387, "ming": 11388, "maker": 11389, "##gm": 11390, "nikon": 11391, "##fig": 11392, "ppi": 11393, "kelly": 11394, "##\u308a\u307e\u3059": 11395, "jchere": 11396, "\u3066\u304d\u307e\u3059": 11397, "ted": 11398, "md": 11399, "003": 11400, "fgo": 11401, "tech": 11402, "##tto": 11403, "dan": 11404, "soc": 11405, "##gl": 11406, "##len": 11407, "hair": 11408, "earth": 11409, "640": 11410, "521": 11411, "img": 11412, "##pper": 11413, "##a1": 11414, "##\u3066\u304d\u308b": 11415, "##\u30ed\u30af": 11416, "acca": 11417, "##ition": 11418, "##ference": 11419, "suite": 11420, "##ig": 11421, "outlook": 11422, "##mond": 11423, "##cation": 11424, "398": 11425, "##pr": 11426, "279": 11427, "101vip": 11428, "358": 11429, "##999": 11430, "282": 11431, "64gb": 11432, "3800": 11433, "345": 11434, "airport": 11435, "##over": 11436, "284": 11437, "##\u304a\u308a": 11438, "jones": 11439, "##ith": 11440, "lab": 11441, "##su": 11442, "##\u3044\u308b\u306e\u3066": 11443, "co2": 11444, "town": 11445, "piece": 11446, "##llo": 11447, "no1": 11448, "vmware": 11449, "24h": 11450, "##qi": 11451, "focus": 11452, "reader": 11453, "##admin": 11454, "##ora": 11455, "tb": 11456, "false": 11457, "##log": 11458, "1898": 11459, "know": 11460, "lan": 11461, "838": 11462, "##ces": 11463, "f4": 11464, "##ume": 11465, "motel": 11466, "stop": 11467, "##oper": 11468, "na": 11469, "flickr": 11470, "netcomponents": 11471, "##af": 11472, "##\u2500": 11473, "pose": 11474, "williams": 11475, "local": 11476, "##ound": 11477, "##cg": 11478, "##site": 11479, "##iko": 11480, "\u3044\u304a": 11481, "274": 11482, "5m": 11483, "gsm": 11484, "con": 11485, "##ath": 11486, "1902": 11487, "friends": 11488, "##hip": 11489, "cell": 11490, "317": 11491, "##rey": 11492, "780": 11493, "cream": 11494, "##cks": 11495, "012": 11496, "##dp": 11497, "facebooktwitterpinterestgoogle": 11498, "sso": 11499, "324": 11500, "shtml": 11501, "song": 11502, "swiss": 11503, "##mw": 11504, "##\u30ad\u30f3\u30af": 11505, "lumia": 11506, "xdd": 11507, "string": 11508, "tiffany": 11509, "522": 11510, "marc": 11511, "\u3089\u308c\u305f": 11512, "insee": 11513, "russell": 11514, "sc": 11515, "dell": 11516, "##ations": 11517, "\uff4f\uff4b": 11518, "camera": 11519, "289": 11520, "##vs": 11521, "##flow": 11522, "##late": 11523, "classic": 11524, "287": 11525, "##nter": 11526, "stay": 11527, "g1": 11528, "mtv": 11529, "512": 11530, "##ever": 11531, "##lab": 11532, "##nger": 11533, "qe": 11534, "sata": 11535, "ryan": 11536, "d1": 11537, "50ml": 11538, "cms": 11539, "##cing": 11540, "su": 11541, "292": 11542, "3300": 11543, "editor": 11544, "296": 11545, "##nap": 11546, "security": 11547, "sunday": 11548, "association": 11549, "##ens": 11550, "##700": 11551, "##bra": 11552, "acg": 11553, "##\u304b\u308a": 11554, "sofascore": 11555, "\u3068\u306f": 11556, "mkv": 11557, "##ign": 11558, "jonathan": 11559, "gary": 11560, "build": 11561, "labels": 11562, "##oto": 11563, "tesla": 11564, "moba": 11565, "qi": 11566, "gohappy": 11567, "general": 11568, "ajax": 11569, "1024": 11570, "##\u304b\u308b": 11571, "\u30b5\u30a4\u30c8": 11572, "society": 11573, "##test": 11574, "##urs": 11575, "wps": 11576, "fedora": 11577, "##ich": 11578, "mozilla": 11579, "328": 11580, "##480": 11581, "##dr": 11582, "usa": 11583, "urn": 11584, "##lina": 11585, "##\uff52": 11586, "grace": 11587, "##die": 11588, "##try": 11589, "##ader": 11590, "1250": 11591, "##\u306a\u308a": 11592, "elle": 11593, "570": 11594, "##chen": 11595, "##\u11af": 11596, "price": 11597, "##ten": 11598, "uhz": 11599, "##ough": 11600, "eq": 11601, "##hen": 11602, "states": 11603, "push": 11604, "session": 11605, "balance": 11606, "wow": 11607, "506": 11608, "##cus": 11609, "##py": 11610, "when": 11611, "##ward": 11612, "##ep": 11613, "34e": 11614, "wong": 11615, "library": 11616, "prada": 11617, "##\u30b5\u30a4\u30c8": 11618, "##cle": 11619, "running": 11620, "##ree": 11621, "313": 11622, "ck": 11623, "date": 11624, "q4": 11625, "##ctive": 11626, "##ool": 11627, "##\uff1e": 11628, "mk": 11629, "##ira": 11630, "##163": 11631, "388": 11632, "die": 11633, "secret": 11634, "rq": 11635, "dota": 11636, "buffet": 11637, "\u306f\uff11\u30f6": 11638, "e6": 11639, "##ez": 11640, "pan": 11641, "368": 11642, "ha": 11643, "##card": 11644, "##cha": 11645, "2a": 11646, "##\u3055": 11647, "alan": 11648, "day3": 11649, "eye": 11650, "f3": 11651, "##end": 11652, "france": 11653, "keep": 11654, "adi": 11655, "rna": 11656, "tvbs": 11657, "##ala": 11658, "solo": 11659, "nova": 11660, "##\u3048": 11661, "##tail": 11662, "##\u3087\u3046": 11663, "support": 11664, "##ries": 11665, "##\u306a\u308b": 11666, "##ved": 11667, "base": 11668, "copy": 11669, "iis": 11670, "fps": 11671, "##ways": 11672, "hero": 11673, "hgih": 11674, "profile": 11675, "fish": 11676, "mu": 11677, "ssh": 11678, "entertainment": 11679, "chang": 11680, "##wd": 11681, "click": 11682, "cake": 11683, "##ond": 11684, "pre": 11685, "##tom": 11686, "kic": 11687, "pixel": 11688, "##ov": 11689, "##fl": 11690, "product": 11691, "6a": 11692, "##pd": 11693, "dear": 11694, "##gate": 11695, "es": 11696, "yumi": 11697, "audio": 11698, "##\u00b2": 11699, "##sky": 11700, "echo": 11701, "bin": 11702, "where": 11703, "##ture": 11704, "329": 11705, "##ape": 11706, "find": 11707, "sap": 11708, "isis": 11709, "##\u306a\u3068": 11710, "nand": 11711, "##101": 11712, "##load": 11713, "##ream": 11714, "band": 11715, "a6": 11716, "525": 11717, "never": 11718, "##post": 11719, "festival": 11720, "50cm": 11721, "##we": 11722, "555": 11723, "guide": 11724, "314": 11725, "zenfone": 11726, "##ike": 11727, "335": 11728, "gd": 11729, "forum": 11730, "jessica": 11731, "strong": 11732, "alexander": 11733, "##ould": 11734, "software": 11735, "allen": 11736, "##ious": 11737, "program": 11738, "360\u00b0": 11739, "else": 11740, "lohasthree": 11741, "##gar": 11742, "\u3059\u308b\u3053\u3068\u304b\u3066\u304d\u307e\u3059": 11743, "please": 11744, "##\u308c\u307e\u3059": 11745, "rc": 11746, "##ggle": 11747, "##ric": 11748, "bim": 11749, "50000": 11750, "##own": 11751, "eclipse": 11752, "355": 11753, "brian": 11754, "3ds": 11755, "##side": 11756, "061": 11757, "361": 11758, "##other": 11759, "##\u3051\u308b": 11760, "##tech": 11761, "##ator": 11762, "485": 11763, "engine": 11764, "##ged": 11765, "##\uff54": 11766, "plaza": 11767, "##fit": 11768, "cia": 11769, "ngo": 11770, "westbrook": 11771, "shi": 11772, "tbs": 11773, "50mm": 11774, "##\u307f\u307e\u305b\u3093\u304b": 11775, "sci": 11776, "291": 11777, "reuters": 11778, "##ily": 11779, "contextlink": 11780, "##hn": 11781, "af": 11782, "##cil": 11783, "bridge": 11784, "very": 11785, "##cel": 11786, "1890": 11787, "cambridge": 11788, "##ize": 11789, "15g": 11790, "##aid": 11791, "##data": 11792, "790": 11793, "frm": 11794, "##head": 11795, "award": 11796, "butler": 11797, "##sun": 11798, "meta": 11799, "##mar": 11800, "america": 11801, "ps3": 11802, "puma": 11803, "pmid": 11804, "##\u3059\u304b": 11805, "lc": 11806, "670": 11807, "kitchen": 11808, "##lic": 11809, "\u30aa\u30fc\u30d5\u30f35": 11810, "\u304d\u306a\u3057\u30bd\u30d5\u30c8\u30b5\u30fc\u30d2\u30b9": 11811, "\u305d\u3057\u3066": 11812, "day1": 11813, "future": 11814, "\u2605\u2605\u2605\u2605": 11815, "##text": 11816, "##page": 11817, "##rris": 11818, "pm1": 11819, "##ket": 11820, "fans": 11821, "##\u3063\u3066\u3044\u307e\u3059": 11822, "1001": 11823, "christian": 11824, "bot": 11825, "kids": 11826, "trackback": 11827, "##hai": 11828, "c3": 11829, "display": 11830, "##hl": 11831, "n2": 11832, "1896": 11833, "idea": 11834, "\u3055\u3093\u3082": 11835, "##sent": 11836, "airmail": 11837, "##ug": 11838, "##men": 11839, "pwm": 11840, "\u3051\u307e\u3059": 11841, "028": 11842, "##lution": 11843, "369": 11844, "852": 11845, "awards": 11846, "schemas": 11847, "354": 11848, "asics": 11849, "wikipedia": 11850, "font": 11851, "##tional": 11852, "##vy": 11853, "c2": 11854, "293": 11855, "##\u308c\u3066\u3044\u308b": 11856, "##dget": 11857, "##ein": 11858, "\u3063\u3066\u3044\u308b": 11859, "contact": 11860, "pepper": 11861, "\u30b9\u30ad\u30eb": 11862, "339": 11863, "##\uff5e5": 11864, "294": 11865, "##uel": 11866, "##ument": 11867, "730": 11868, "##hang": 11869, "\u307f\u3066\u3059": 11870, "q5": 11871, "##sue": 11872, "rain": 11873, "##ndi": 11874, "wei": 11875, "swatch": 11876, "##cept": 11877, "\u308f\u305b": 11878, "331": 11879, "popular": 11880, "##ste": 11881, "##tag": 11882, "p2": 11883, "501": 11884, "trc": 11885, "1899": 11886, "##west": 11887, "##live": 11888, "justin": 11889, "honda": 11890, "ping": 11891, "messenger": 11892, "##rap": 11893, "v9": 11894, "543": 11895, "##\u3068\u306f": 11896, "unity": 11897, "appqq": 11898, "\u306f\u3059\u3078\u3066": 11899, "025": 11900, "leo": 11901, "##tone": 11902, "##\u30c6": 11903, "##ass": 11904, "uniqlo": 11905, "##010": 11906, "502": 11907, "her": 11908, "jane": 11909, "memory": 11910, "moneydj": 11911, "##tical": 11912, "human": 11913, "12306": 11914, "\u3057\u3066\u3044\u308b\u3068": 11915, "##m2": 11916, "coc": 11917, "miacare": 11918, "##mn": 11919, "tmt": 11920, "##core": 11921, "vim": 11922, "kk": 11923, "##may": 11924, "fan": 11925, "target": 11926, "use": 11927, "too": 11928, "338": 11929, "435": 11930, "2050": 11931, "867": 11932, "737": 11933, "fast": 11934, "##2c": 11935, "services": 11936, "##ope": 11937, "omega": 11938, "energy": 11939, "##\u308f": 11940, "pinkoi": 11941, "1a": 11942, "##\u306a\u304b\u3089": 11943, "##rain": 11944, "jackson": 11945, "##ement": 11946, "##\u30b7\u30e3\u30f3\u30eb\u306e": 11947, "374": 11948, "366": 11949, "\u305d\u3093\u306a": 11950, "p9": 11951, "rd": 11952, "##\u11a8": 11953, "1111": 11954, "##tier": 11955, "##vic": 11956, "zone": 11957, "##\u2502": 11958, "385": 11959, "690": 11960, "dl": 11961, "isofix": 11962, "cpa": 11963, "m4": 11964, "322": 11965, "kimi": 11966, "\u3081\u3066": 11967, "davis": 11968, "##lay": 11969, "lulu": 11970, "##uck": 11971, "050": 11972, "weeks": 11973, "qs": 11974, "##hop": 11975, "920": 11976, "##\uff4e": 11977, "ae": 11978, "##ear": 11979, "\uff5e5": 11980, "eia": 11981, "405": 11982, "##fly": 11983, "korea": 11984, "jpeg": 11985, "boost": 11986, "##ship": 11987, "small": 11988, "##\u30ea\u30a2": 11989, "1860": 11990, "eur": 11991, "297": 11992, "425": 11993, "valley": 11994, "##iel": 11995, "simple": 11996, "##ude": 11997, "rn": 11998, "k2": 11999, "##ena": 12000, "\u3055\u308c\u307e\u3059": 12001, "non": 12002, "patrick": 12003, "\u3057\u3066\u3044\u308b\u304b\u3089": 12004, "##\u30ca\u30fc": 12005, "feed": 12006, "5757": 12007, "30g": 12008, "process": 12009, "well": 12010, "qqmei": 12011, "##thing": 12012, "they": 12013, "aws": 12014, "lu": 12015, "pink": 12016, "##ters": 12017, "##kin": 12018, "\u307e\u305f\u306f": 12019, "board": 12020, "##vertisement": 12021, "wine": 12022, "##ien": 12023, "unicode": 12024, "##dge": 12025, "r1": 12026, "359": 12027, "##tant": 12028, "\u3044\u3092": 12029, "##twitter": 12030, "##3c": 12031, "cool1": 12032, "\u3055\u308c\u308b": 12033, "##\u308c\u3066": 12034, "##\uff4c": 12035, "isp": 12036, "##012": 12037, "standard": 12038, "45\u33a12": 12039, "402": 12040, "##150": 12041, "matt": 12042, "##fu": 12043, "326": 12044, "##iner": 12045, "googlemsn": 12046, "pixnetfacebookyahoo": 12047, "##\u30e9\u30f3": 12048, "x7": 12049, "886": 12050, "##uce": 12051, "\u30e1\u30fc\u30ab\u30fc": 12052, "sao": 12053, "##ev": 12054, "##\u304d\u307e\u3057\u305f": 12055, "##file": 12056, "9678": 12057, "403": 12058, "xddd": 12059, "shirt": 12060, "6l": 12061, "##rio": 12062, "##hat": 12063, "3mm": 12064, "givenchy": 12065, "ya": 12066, "bang": 12067, "##lio": 12068, "monday": 12069, "crystal": 12070, "\u30ed\u30af\u30a4\u30f3": 12071, "##abc": 12072, "336": 12073, "head": 12074, "890": 12075, "ubuntuforumwikilinuxpastechat": 12076, "##vc": 12077, "##\uff5e20": 12078, "##rity": 12079, "cnc": 12080, "7866": 12081, "ipv6": 12082, "null": 12083, "1897": 12084, "##ost": 12085, "yang": 12086, "imsean": 12087, "tiger": 12088, "##fet": 12089, "##\u30f3\u30b9": 12090, "352": 12091, "##\uff1d": 12092, "dji": 12093, "327": 12094, "ji": 12095, "maria": 12096, "##come": 12097, "##\u3093\u3066": 12098, "foundation": 12099, "3100": 12100, "##beth": 12101, "##\u306a\u3063\u305f": 12102, "1m": 12103, "601": 12104, "active": 12105, "##aft": 12106, "##don": 12107, "3p": 12108, "sr": 12109, "349": 12110, "emma": 12111, "##khz": 12112, "living": 12113, "415": 12114, "353": 12115, "1889": 12116, "341": 12117, "709": 12118, "457": 12119, "sas": 12120, "x6": 12121, "##face": 12122, "pptv": 12123, "x4": 12124, "##mate": 12125, "han": 12126, "sophie": 12127, "##jing": 12128, "337": 12129, "fifa": 12130, "##mand": 12131, "other": 12132, "sale": 12133, "inwedding": 12134, "##gn": 12135, "\u3066\u304d\u3061\u3083\u3044\u307e\u3059": 12136, "##mmy": 12137, "##pmlast": 12138, "bad": 12139, "nana": 12140, "nbc": 12141, "\u3057\u3066\u307f\u3066\u304f\u305f\u3055\u3044\u306d": 12142, "\u306a\u3068\u306f\u304a": 12143, "##wu": 12144, "##\u304b\u3042\u308a\u307e\u3059": 12145, "##\u3042": 12146, "note7": 12147, "single": 12148, "##340": 12149, "\u305b\u304b\u3089\u3053": 12150, "\u3057\u3066\u304f\u305f\u3055\u3044\u266a\u3053\u306e": 12151, "\u3057\u306b\u306f\u3068\u3093\u3068\u3093\u30ef\u30fc\u30af\u30b1\u30fc\u30c8\u3092": 12152, "\u3059\u308b\u3068\u3042\u306a\u305f\u306b\u3082\u3063\u3068\u30de\u30c3\u30c1\u3057\u305f": 12153, "\u306a\u3089\u30ef\u30fc\u30af\u30b1\u30fc\u30c8\u3078": 12154, "\u3082\u307f\u3064\u304b\u3063\u3061\u3083\u3046\u304b\u3082": 12155, "\u30ef\u30fc\u30af\u30b1\u30fc\u30c8\u306e": 12156, "##bel": 12157, "window": 12158, "##dio": 12159, "##ht": 12160, "union": 12161, "age": 12162, "382": 12163, "\uff11\uff14": 12164, "##ivity": 12165, "##\uff59": 12166, "\u30b3\u30e1\u30f3\u30c8": 12167, "domain": 12168, "neo": 12169, "##isa": 12170, "##lter": 12171, "5k": 12172, "f5": 12173, "steven": 12174, "##cts": 12175, "powerpoint": 12176, "tft": 12177, "self": 12178, "g2": 12179, "ft": 12180, "##\u30c6\u30eb": 12181, "zol": 12182, "##act": 12183, "mwc": 12184, "381": 12185, "343": 12186, "\u3082\u3046": 12187, "nbapop": 12188, "408": 12189, "\u3066\u3042\u308b": 12190, "eds": 12191, "ace": 12192, "##room": 12193, "previous": 12194, "author": 12195, "tomtom": 12196, "il": 12197, "##ets": 12198, "hu": 12199, "financial": 12200, "\u2606\u2606\u2606": 12201, "\u3063\u3066\u3044\u307e\u3059": 12202, "bp": 12203, "5t": 12204, "chi": 12205, "1gb": 12206, "##hg": 12207, "fairmont": 12208, "cross": 12209, "008": 12210, "gay": 12211, "h2": 12212, "function": 12213, "##\u3051\u3066": 12214, "356": 12215, "also": 12216, "1b": 12217, "625": 12218, "##\u30fc\u30bf": 12219, "##raph": 12220, "1894": 12221, "3\uff5e5": 12222, "##ils": 12223, "i3": 12224, "334": 12225, "avenue": 12226, "##host": 12227, "\u306b\u3088\u308b": 12228, "##bon": 12229, "##tsu": 12230, "message": 12231, "navigation": 12232, "50g": 12233, "fintech": 12234, "h6": 12235, "##\u3053\u3068\u3092": 12236, "8cm": 12237, "##ject": 12238, "##vas": 12239, "##firm": 12240, "credit": 12241, "##wf": 12242, "xxxx": 12243, "form": 12244, "##nor": 12245, "##space": 12246, "huawei": 12247, "plan": 12248, "json": 12249, "sbl": 12250, "##dc": 12251, "machine": 12252, "921": 12253, "392": 12254, "wish": 12255, "##120": 12256, "##sol": 12257, "windows7": 12258, "edward": 12259, "##\u305f\u3081\u306b": 12260, "development": 12261, "washington": 12262, "##nsis": 12263, "lo": 12264, "818": 12265, "##sio": 12266, "##ym": 12267, "##bor": 12268, "planet": 12269, "##\uff5e8": 12270, "##wt": 12271, "ieee": 12272, "gpa": 12273, "##\u3081\u3066": 12274, "camp": 12275, "ann": 12276, "gm": 12277, "##tw": 12278, "##oka": 12279, "connect": 12280, "##rss": 12281, "##work": 12282, "##atus": 12283, "wall": 12284, "chicken": 12285, "soul": 12286, "2mm": 12287, "##times": 12288, "fa": 12289, "##ather": 12290, "##cord": 12291, "009": 12292, "##eep": 12293, "hitachi": 12294, "gui": 12295, "harry": 12296, "##pan": 12297, "e1": 12298, "disney": 12299, "##press": 12300, "##\u30fc\u30b7\u30e7\u30f3": 12301, "wind": 12302, "386": 12303, "frigidaire": 12304, "##tl": 12305, "liu": 12306, "hsu": 12307, "332": 12308, "basic": 12309, "von": 12310, "ev": 12311, "\u3044\u305f": 12312, "\u3066\u304d\u308b": 12313, "\u30b9\u30db\u30f3\u30b5\u30fc\u30b5\u30a4\u30c8": 12314, "learning": 12315, "##ull": 12316, "expedia": 12317, "archives": 12318, "change": 12319, "##wei": 12320, "santa": 12321, "cut": 12322, "ins": 12323, "6gb": 12324, "turbo": 12325, "brand": 12326, "cf1": 12327, "508": 12328, "004": 12329, "return": 12330, "747": 12331, "##rip": 12332, "h1": 12333, "##nis": 12334, "##\u3092\u3053": 12335, "128gb": 12336, "##\u306b\u304a": 12337, "3t": 12338, "application": 12339, "\u3057\u3066\u304a\u308a": 12340, "emc": 12341, "rx": 12342, "##oon": 12343, "384": 12344, "quick": 12345, "412": 12346, "15058": 12347, "wilson": 12348, "wing": 12349, "chapter": 12350, "##bug": 12351, "beyond": 12352, "##cms": 12353, "##dar": 12354, "##oh": 12355, "zoom": 12356, "e2": 12357, "trip": 12358, "sb": 12359, "##nba": 12360, "rcep": 12361, "342": 12362, "aspx": 12363, "ci": 12364, "080": 12365, "gc": 12366, "gnu": 12367, "\u3081\u308b": 12368, "##count": 12369, "advanced": 12370, "dance": 12371, "dv": 12372, "##url": 12373, "##ging": 12374, "367": 12375, "8591": 12376, "am09": 12377, "shadow": 12378, "battle": 12379, "346": 12380, "##\uff49": 12381, "##cia": 12382, "##\u3068\u3044\u3046": 12383, "emily": 12384, "##\u306e\u3066\u3059": 12385, "##tation": 12386, "host": 12387, "ff": 12388, "techorz": 12389, "sars": 12390, "##mini": 12391, "##mporary": 12392, "##ering": 12393, "nc": 12394, "4200": 12395, "798": 12396, "##next": 12397, "cma": 12398, "##mbps": 12399, "##gas": 12400, "##ift": 12401, "##dot": 12402, "##\u30a3": 12403, "455": 12404, "##\uff5e17": 12405, "amana": 12406, "##\u308a\u306e": 12407, "426": 12408, "##ros": 12409, "ir": 12410, "00\u33a11": 12411, "##eet": 12412, "##ible": 12413, "##\u2193": 12414, "710": 12415, "\u02cb\u25bd\u02ca": 12416, "##aka": 12417, "dcs": 12418, "iq": 12419, "##\uff56": 12420, "l1": 12421, "##lor": 12422, "maggie": 12423, "##011": 12424, "##iu": 12425, "588": 12426, "##\uff5e1": 12427, "830": 12428, "##gt": 12429, "1tb": 12430, "articles": 12431, "create": 12432, "##burg": 12433, "##iki": 12434, "database": 12435, "fantasy": 12436, "##rex": 12437, "##cam": 12438, "dlc": 12439, "dean": 12440, "##you": 12441, "hard": 12442, "path": 12443, "gaming": 12444, "victoria": 12445, "maps": 12446, "cb": 12447, "##lee": 12448, "##itor": 12449, "overchicstoretvhome": 12450, "systems": 12451, "##xt": 12452, "416": 12453, "p3": 12454, "sarah": 12455, "760": 12456, "##nan": 12457, "407": 12458, "486": 12459, "x9": 12460, "install": 12461, "second": 12462, "626": 12463, "##ann": 12464, "##ph": 12465, "##rcle": 12466, "##nic": 12467, "860": 12468, "##nar": 12469, "ec": 12470, "##\u3068\u3046": 12471, "768": 12472, "metro": 12473, "chocolate": 12474, "##rian": 12475, "\uff5e4": 12476, "##table": 12477, "##\u3057\u3066\u3044\u307e\u3059": 12478, "skin": 12479, "##sn": 12480, "395": 12481, "mountain": 12482, "##0mm": 12483, "inparadise": 12484, "6m": 12485, "7x24": 12486, "ib": 12487, "4800": 12488, "##jia": 12489, "eeworld": 12490, "creative": 12491, "g5": 12492, "g3": 12493, "357": 12494, "parker": 12495, "ecfa": 12496, "village": 12497, "\u304b\u3089\u306e": 12498, "18000": 12499, "sylvia": 12500, "\u30b5\u30fc\u30d2\u30b9": 12501, "hbl": 12502, "##ques": 12503, "##onsored": 12504, "##x2": 12505, "##\u304d\u307e\u3059": 12506, "##v4": 12507, "##tein": 12508, "ie6": 12509, "383": 12510, "##stack": 12511, "389": 12512, "ver": 12513, "##ads": 12514, "##baby": 12515, "sound": 12516, "bbe": 12517, "##110": 12518, "##lone": 12519, "##uid": 12520, "ads": 12521, "022": 12522, "gundam": 12523, "351": 12524, "thinkpad": 12525, "006": 12526, "scrum": 12527, "match": 12528, "##ave": 12529, "mems": 12530, "##470": 12531, "##oy": 12532, "##\u306a\u308a\u307e\u3057\u305f": 12533, "##talk": 12534, "glass": 12535, "lamigo": 12536, "span": 12537, "##eme": 12538, "job": 12539, "##a5": 12540, "jay": 12541, "wade": 12542, "kde": 12543, "498": 12544, "##lace": 12545, "ocean": 12546, "tvg": 12547, "##covery": 12548, "##r3": 12549, "##ners": 12550, "##rea": 12551, "junior": 12552, "think": 12553, "##aine": 12554, "cover": 12555, "##ision": 12556, "##sia": 12557, "\u2193\u2193": 12558, "##bow": 12559, "msi": 12560, "413": 12561, "458": 12562, "406": 12563, "##love": 12564, "711": 12565, "801": 12566, "soft": 12567, "z2": 12568, "##pl": 12569, "456": 12570, "1840": 12571,
[...]
